<unk>	0
<s>	0
</s>	0
<pad>	0
<n>	0
▁	-1.7492
,	-2.97519
▁the	-3.1804
.	-3.48677
▁and	-3.95867
▁of	-4.06963
▁a	-4.0868
▁to	-4.27322
▁in	-4.40615
▁i	-4.5233
s	-5.00802
▁my	-5.13288
▁is	-5.14776
-	-5.15381
▁you	-5.15628
▁that	-5.16602
▁it	-5.18952
▁with	-5.2876
▁on	-5.36134
▁for	-5.4252
▁as	-5.54917
—	-5.57485
;	-5.61784
▁his	-5.69362
▁was	-5.69917
▁we	-5.70818
▁from	-5.72005
▁not	-5.73001
▁me	-5.74731
▁he	-5.74882
▁like	-5.79665
▁her	-5.80514
▁at	-5.83807
▁all	-5.8589
▁but	-5.87501
:	-5.89131
▁be	-5.91014
▁they	-5.91464
?	-5.91626
▁or	-5.93156
▁this	-5.93747
▁are	-5.97369
▁your	-5.97593
▁one	-6.06393
▁by	-6.07326
▁their	-6.09826
▁its	-6.11437
▁when	-6.15501
▁no	-6.17354
▁have	-6.18205
▁so	-6.1867
▁what	-6.19749
▁she	-6.22158
ing	-6.25513
▁out	-6.28232
▁our	-6.30957
▁there	-6.34072
▁an	-6.36271
▁into	-6.38427
!	-6.39549
ed	-6.39698
▁up	-6.40399
▁who	-6.43208
▁will	-6.45317
▁if	-6.45486
d	-6.4681
and	-6.48679
▁where	-6.49567
▁were	-6.56428
▁them	-6.57008
the	-6.57597
▁then	-6.61485
▁now	-6.63986
▁“	-6.6439
▁us	-6.64886
▁how	-6.71185
▁had	-6.71273
▁down	-6.72113
▁love	-6.73316
▁can	-6.75927
▁through	-6.76925
▁him	-6.77102
i	-6.78807
▁would	-6.79521
▁do	-6.80378
▁back	-6.83586
▁over	-6.84177
▁which	-6.84668
a	-6.85909
▁more	-6.90023
▁know	-6.90193
▁time	-6.90359
▁night	-6.93325
▁could	-6.94645
▁see	-6.9522
▁light	-7.00926
▁only	-7.01188
▁still	-7.01377
▁has	-7.02088
▁day	-7.02452
▁some	-7.04622
▁man	-7.05484
▁never	-7.05518
▁say	-7.07266
▁am	-7.08146
▁eyes	-7.09827
▁&	-7.09873
▁said	-7.10791
▁here	-7.12059
▁way	-7.14129
▁long	-7.14481
▁go	-7.15511
▁life	-7.15538
e	-7.18722
▁about	-7.18759
▁old	-7.18819
▁come	-7.19177
in	-7.19397
▁just	-7.19491
▁too	-7.20685
▁each	-7.2185
▁(	-7.22254
▁than	-7.2292
▁world	-7.23749
▁little	-7.23958
▁before	-7.26317
▁white	-7.2849
ly	-7.29181
▁did	-7.29697
▁heart	-7.30606
▁even	-7.30615
▁other	-7.30995
y	-7.32675
▁away	-7.3309
▁water	-7.33542
▁again	-7.34477
▁after	-7.34622
▁black	-7.35938
▁been	-7.37522
▁two	-7.39405
▁off	-7.40123
▁hand	-7.40459
▁let	-7.41016
▁those	-7.41162
▁face	-7.42468
▁made	-7.42495
▁make	-7.42784
to	-7.42904
▁nothing	-7.44026
▁sun	-7.45077
▁own	-7.45155
▁dark	-7.45362
▁first	-7.45543
▁these	-7.46244
▁under	-7.47047
▁air	-7.47569
▁last	-7.48116
▁every	-7.48485
▁think	-7.49107
▁thy	-7.49218
▁once	-7.5015
▁dont	-7.50342
)	-7.51274
▁dead	-7.51915
▁body	-7.52482
▁god	-7.52765
▁new	-7.5291
▁must	-7.53979
▁while	-7.55719
▁yet	-7.55894
▁im	-7.56265
▁hands	-7.5797
▁good	-7.59297
▁look	-7.59522
▁though	-7.59586
▁may	-7.59619
▁wind	-7.5985
▁head	-7.60944
▁left	-7.61341
▁sky	-7.61344
▁home	-7.62281
▁years	-7.62739
▁things	-7.62801
▁blue	-7.62907
▁men	-7.63052
▁earth	-7.66125
▁house	-7.67011
▁something	-7.68161
▁because	-7.68188
▁sea	-7.68594
▁want	-7.68889
of	-7.69019
▁thought	-7.69494
▁death	-7.71871
▁around	-7.73033
▁without	-7.73133
▁get	-7.73528
▁well	-7.73532
▁take	-7.73571
▁another	-7.73648
▁place	-7.74532
▁always	-7.7496
▁mother	-7.75201
▁much	-7.75394
.”	-7.75638
▁shall	-7.75971
▁green	-7.77176
▁tell	-7.77344
▁red	-7.79042
▁between	-7.79044
▁came	-7.79575
▁should	-7.80871
▁against	-7.82011
▁many	-7.8253
▁might	-7.83231
▁people	-7.83365
but	-7.83412
▁thou	-7.84106
▁right	-7.84365
▁small	-7.84463
▁upon	-7.84947
▁blood	-7.84954
t	-7.85586
▁far	-7.86254
▁great	-7.8647
▁why	-7.86509
▁mind	-7.86738
▁name	-7.86959
▁hear	-7.8706
▁trees	-7.88706
▁end	-7.88998
▁such	-7.89171
▁words	-7.89779
▁room	-7.90651
▁ever	-7.90942
▁across	-7.91379
as	-7.91596
▁find	-7.91711
▁whose	-7.91948
▁o	-7.92889
▁saw	-7.92975
▁days	-7.937
”	-7.94461
▁un	-7.94947
▁any	-7.95041
▁being	-7.95189
▁open	-7.9531
▁nor	-7.955
▁thing	-7.95858
▁hair	-7.95873
▁sleep	-7.96311
er	-7.96465
▁inside	-7.96592
▁"	-7.96748
▁rain	-7.97402
▁fire	-7.97436
▁sweet	-7.98739
▁door	-7.98906
▁father	-7.98958
▁woman	-7.99048
es	-7.99051
▁morning	-8.00633
▁gone	-8.00751
▁behind	-8.01201
▁cold	-8.01309
▁half	-8.02383
▁eye	-8.02566
▁until	-8.02855
that	-8.03049
▁cant	-8.03665
▁lost	-8.04015
▁moon	-8.04056
o	-8.0461
▁says	-8.04765
▁leaves	-8.04835
▁live	-8.04909
▁tree	-8.05165
▁does	-8.05287
▁give	-8.05327
▁past	-8.05792
▁same	-8.06258
▁high	-8.06883
▁alone	-8.06986
▁keep	-8.06989
▁feel	-8.07574
▁feet	-8.07804
▁river	-8.08435
▁children	-8.09544
▁above	-8.10162
or	-8.10232
▁bed	-8.10796
▁voice	-8.10914
▁knew	-8.11547
▁snow	-8.11636
▁soul	-8.1165
▁mouth	-8.12211
▁put	-8.12276
on	-8.12985
▁sound	-8.13006
for	-8.14082
▁turn	-8.14506
it	-8.1471
▁thee	-8.14888
▁enough	-8.14946
n	-8.15563
▁myself	-8.16015
▁full	-8.17007
▁young	-8.17075
▁child	-8.17141
▁everything	-8.17244
r	-8.17426
▁dream	-8.17677
▁word	-8.18766
▁window	-8.1884
▁remember	-8.19243
▁call	-8.19359
▁city	-8.19989
▁die	-8.20438
▁work	-8.20611
▁song	-8.2151
▁found	-8.21657
▁boy	-8.21802
▁three	-8.22046
,”	-8.22219
▁went	-8.22854
▁among	-8.2312
▁along	-8.23723
▁very	-8.24304
st	-8.24587
▁got	-8.25772
▁deep	-8.25925
▁walk	-8.26244
▁most	-8.26337
▁fall	-8.26612
▁leave	-8.27003
▁hard	-8.27484
▁summer	-8.28409
▁going	-8.28473
▁kind	-8.2864
▁street	-8.29628
you	-8.30338
▁glass	-8.31212
▁cannot	-8.31306
▁ill	-8.3156
▁stars	-8.31982
▁next	-8.32003
▁need	-8.32093
▁side	-8.3212
▁comes	-8.32215
with	-8.32863
like	-8.32927
▁didnt	-8.33222
is	-8.33473
▁both	-8.33507
he	-8.33724
▁itself	-8.33736
▁whole	-8.34077
▁seen	-8.34519
▁grass	-8.35701
▁heard	-8.3578
▁hold	-8.36004
▁ground	-8.36234
▁girl	-8.36619
▁land	-8.37525
▁stone	-8.37952
▁skin	-8.37993
▁someone	-8.38407
▁stand	-8.38826
▁read	-8.39317
▁breath	-8.39721
▁bright	-8.40186
▁gold	-8.40596
▁lie	-8.41202
▁took	-8.41268
▁mine	-8.4149
▁arms	-8.41492
my	-8.42162
/	-8.42628
▁ive	-8.42798
no	-8.42887
less	-8.42892
▁dust	-8.42974
al	-8.43244
▁sometimes	-8.4342
▁flowers	-8.43477
▁birds	-8.44445
▁set	-8.44528
▁war	-8.4472
▁toward	-8.44727
▁fear	-8.44825
▁line	-8.45695
▁till	-8.45793
▁beneath	-8.45936
we	-8.46191
▁beautiful	-8.465
▁called	-8.46726
▁wall	-8.46786
▁together	-8.46955
▁sing	-8.47098
▁told	-8.47396
▁watch	-8.47571
▁makes	-8.47701
▁music	-8.48197
▁rest	-8.48253
▁silence	-8.48296
▁living	-8.48317
▁near	-8.48438
▁others	-8.48668
▁close	-8.48804
▁mean	-8.49242
▁wild	-8.49402
▁true	-8.49405
▁broken	-8.49619
▁oh	-8.4987
▁free	-8.50012
▁heaven	-8.50769
▁almost	-8.50895
▁else	-8.51015
▁beyond	-8.51642
▁pain	-8.5169
▁spring	-8.51699
▁theres	-8.51995
▁year	-8.52259
▁turned	-8.52361
▁women	-8.52442
▁few	-8.52591
▁empty	-8.53152
▁dreams	-8.53345
▁car	-8.53675
▁looking	-8.53866
so	-8.5391
▁thats	-8.54046
▁id	-8.54168
▁friend	-8.54201
▁speak	-8.54298
▁part	-8.54302
▁round	-8.54784
▁soft	-8.54914
▁road	-8.55192
▁done	-8.55431
▁*	-8.55767
▁youre	-8.55803
▁winter	-8.55933
▁since	-8.56005
▁maybe	-8.56118
▁moment	-8.56159
what	-8.5649
▁yellow	-8.56706
▁bird	-8.56755
▁‘	-8.56973
when	-8.57232
an	-8.57562
▁big	-8.57615
▁wings	-8.58812
▁better	-8.59358
▁art	-8.59375
▁tongue	-8.59421
▁human	-8.59532
ll	-8.59558
▁coming	-8.59878
▁late	-8.60323
▁fingers	-8.60518
▁soon	-8.60835
▁flesh	-8.61071
▁clear	-8.61217
▁lips	-8.61454
▁self	-8.61809
▁space	-8.6203
▁rose	-8.62202
▁beauty	-8.62277
▁waiting	-8.62326
▁hope	-8.62493
▁outside	-8.62618
▁best	-8.63095
▁touch	-8.63147
▁shadow	-8.63346
▁cut	-8.63456
▁dog	-8.63573
▁book	-8.63972
▁field	-8.64104
▁used	-8.64181
▁ask	-8.64238
▁held	-8.64379
▁lay	-8.64515
ness	-8.64754
▁memory	-8.64766
▁knows	-8.64887
▁loved	-8.65087
▁run	-8.65802
▁floor	-8.66067
▁born	-8.66082
▁also	-8.66209
ers	-8.66385
▁wanted	-8.66393
▁lives	-8.67108
▁clouds	-8.6732
▁sit	-8.68205
▁...	-8.68234
▁play	-8.68243
▁dear	-8.68262
▁within	-8.68279
▁stood	-8.68411
est	-8.68452
▁slow	-8.68539
▁brown	-8.69284
▁town	-8.69346
▁times	-8.69371
▁stop	-8.69656
▁felt	-8.69678
▁darkness	-8.70288
▁later	-8.703
▁themselves	-8.70671
▁low	-8.70686
▁hour	-8.71221
▁talk	-8.71334
at	-8.7175
▁table	-8.72616
▁gave	-8.72825
▁story	-8.73114
▁died	-8.73261
▁hot	-8.73381
th	-8.73576
▁goes	-8.73817
▁anything	-8.7398
▁fair	-8.74745
▁garden	-8.74839
▁de	-8.7496
▁eat	-8.75028
▁ice	-8.75331
▁real	-8.75367
▁joy	-8.75388
▁faces	-8.7555
▁tears	-8.7594
▁warm	-8.763
▁happy	-8.76641
▁/	-8.7672
▁yes	-8.76805
▁already	-8.76887
▁poor	-8.76931
they	-8.76932
▁friends	-8.77046
c	-8.77307
▁grow	-8.77402
▁pass	-8.77596
▁care	-8.7822
▁country	-8.78348
▁hours	-8.78438
▁move	-8.7864
▁believe	-8.78682
▁bones	-8.78734
▁looked	-8.78899
▁cry	-8.7912
if	-8.79205
▁poem	-8.79299
▁paper	-8.79404
▁quiet	-8.79528
▁really	-8.79684
▁fish	-8.79845
▁wife	-8.79935
▁lord	-8.80254
▁wont	-8.8034
▁evening	-8.80349
▁fell	-8.80627
."	-8.81121
▁silver	-8.8125
▁falling	-8.8151
▁four	-8.81582
▁beside	-8.81691
▁smoke	-8.81726
▁sense	-8.81833
▁change	-8.82391
▁wood	-8.82421
▁star	-8.8247
m	-8.82633
she	-8.83008
▁whom	-8.83119
▁dry	-8.832
▁bodies	-8.83218
▁smell	-8.8328
▁rock	-8.83453
l	-8.83576
▁fields	-8.83723
▁legs	-8.83774
▁become	-8.83958
up	-8.83965
▁heavy	-8.84178
how	-8.84227
▁fly	-8.84406
▁heat	-8.84431
▁hell	-8.84436
▁sand	-8.84518
▁power	-8.84686
▁rise	-8.8471
▁show	-8.8486
▁bring	-8.84968
▁wet	-8.85164
▁gray	-8.85164
▁ones	-8.85329
▁stay	-8.85337
▁write	-8.85528
▁strange	-8.85541
▁truth	-8.85905
▁today	-8.85975
▁thousand	-8.86734
▁school	-8.86736
▁having	-8.86943
▁himself	-8.87091
▁sight	-8.87096
▁wait	-8.87121
▁seems	-8.87265
▁thinking	-8.87341
▁spirit	-8.87471
who	-8.87483
▁girls	-8.87501
▁wish	-8.8786
▁son	-8.87975
▁shadows	-8.88223
▁mothers	-8.88422
all	-8.88714
▁use	-8.89112
▁walls	-8.89272
▁forget	-8.89516
▁making	-8.89834
▁kept	-8.90381
▁color	-8.90428
▁break	-8.90623
▁teeth	-8.90634
▁wrong	-8.90679
▁dance	-8.90697
▁sure	-8.90855
▁below	-8.90879
where	-8.9109
▁windows	-8.91126
by	-8.91406
its	-8.91657
▁hes	-8.91799
from	-8.91927
▁ago	-8.92008
▁hearts	-8.92626
▁course	-8.92636
▁silent	-8.92958
▁perhaps	-8.93046
▁hill	-8.93056
▁thin	-8.9344
▁waves	-8.93441
▁smile	-8.93544
▁longer	-8.93624
▁less	-8.93634
▁cloud	-8.93831
▁bear	-8.939
▁matter	-8.94089
▁form	-8.94153
▁loves	-8.94451
▁try	-8.94609
▁asked	-8.94946
▁meet	-8.94977
▁1	-8.95211
▁dying	-8.95346
▁lies	-8.95492
▁sad	-8.9576
▁pink	-8.96392
▁pale	-8.96469
▁sat	-8.96651
▁future	-8.96718
▁dawn	-8.96749
▁names	-8.96959
▁baby	-8.97086
▁boys	-8.9714
▁none	-8.97461
▁singing	-8.97722
▁second	-8.97821
this	-8.97993
▁brought	-8.98007
▁thoughts	-8.98022
▁bad	-8.98555
▁alive	-8.9862
▁kiss	-8.98983
▁front	-8.99147
ve	-8.99481
▁clean	-8.99617
▁gods	-8.99721
▁desire	-8.99777
▁peace	-8.99892
▁doesnt	-9.00409
▁seemed	-9.00602
▁lived	-9.00827
▁age	-9.0087
▁language	-9.00881
▁slowly	-9.00993
▁walking	-9.01011
▁ocean	-9.01065
▁given	-9.01096
▁perfect	-9.01269
▁grave	-9.01321
▁looks	-9.01565
▁ear	-9.0159
?”	-9.01733
▁point	-9.02138
▁edge	-9.02378
▁takes	-9.0251
▁cross	-9.031
then	-9.03159
▁saying	-9.03275
▁nature	-9.03319
▁blind	-9.0341
▁thus	-9.03554
▁golden	-9.0394
▁burning	-9.03948
▁money	-9.04052
us	-9.04072
▁wake	-9.04127
▁lights	-9.04355
▁trying	-9.04375
one	-9.04619
▁turns	-9.04748
▁isnt	-9.0479
▁return	-9.05177
▁wide	-9.0519
▁nights	-9.05264
▁horse	-9.05396
▁couldnt	-9.05799
▁standing	-9.05891
▁flower	-9.05935
▁shape	-9.06054
▁hills	-9.06073
▁heads	-9.06171
▁early	-9.0618
▁walked	-9.0627
"	-9.06459
▁five	-9.0654
▁listen	-9.06567
▁often	-9.06833
man	-9.06905
not	-9.06905
▁whatever	-9.07293
▁leaf	-9.07314
▁wonder	-9.07319
▁somewhere	-9.07435
▁drink	-9.07461
▁thick	-9.07688
▁box	-9.07964
▁wine	-9.08405
▁brother	-9.08409
▁help	-9.08631
▁holy	-9.08848
▁streets	-9.08926
▁moving	-9.09159
▁brain	-9.09228
▁lines	-9.09237
▁salt	-9.09337
!”	-9.09451
▁seem	-9.09452
▁strong	-9.09494
▁tiny	-9.09603
▁mountains	-9.0989
▁single	-9.10022
▁everyone	-9.10062
▁began	-9.10379
▁caught	-9.10593
▁different	-9.10754
▁fine	-9.10764
▁train	-9.11164
▁secret	-9.11293
▁breast	-9.11372
▁re	-9.11657
▁corner	-9.11727
▁forever	-9.11926
▁king	-9.12225
▁forth	-9.12702
▁arm	-9.12714
▁wear	-9.12792
▁grief	-9.12893
▁mountain	-9.13138
▁instead	-9.13267
▁foot	-9.13331
▁fathers	-9.13504
▁please	-9.13505
▁history	-9.13512
▁family	-9.13636
▁yourself	-9.13736
▁known	-9.14054
▁mirror	-9.14192
ic	-9.14359
ting	-9.1483
▁bone	-9.14851
▁theyre	-9.14855
▁ye	-9.14962
▁afternoon	-9.1499
▁lake	-9.15005
▁fast	-9.15509
▁cool	-9.15595
▁shore	-9.15656
▁imagine	-9.15865
▁understand	-9.15896
▁sister	-9.15953
▁whats	-9.16043
her	-9.16234
▁burn	-9.16857
▁suddenly	-9.17088
▁taken	-9.17125
▁learned	-9.1716
▁falls	-9.17197
▁watching	-9.17324
re	-9.17598
▁turning	-9.17932
▁ten	-9.18118
▁reach	-9.18154
▁food	-9.18169
▁watched	-9.18169
▁kitchen	-9.18234
▁meant	-9.18443
▁doth	-9.18733
▁grew	-9.18752
▁church	-9.18831
▁wants	-9.18951
▁means	-9.19086
▁grace	-9.19147
▁neck	-9.19189
out	-9.19444
im	-9.19579
▁learn	-9.19604
▁stones	-9.19728
▁person	-9.20036
▁filled	-9.20059
▁pleasure	-9.20066
▁rich	-9.20114
▁naked	-9.20205
▁praise	-9.20598
▁bare	-9.20673
▁feeling	-9.20875
▁fruit	-9.21258
lets	-9.21319
▁milk	-9.21421
▁flame	-9.21449
▁bread	-9.21472
▁distance	-9.21573
en	-9.21775
▁throat	-9.21859
▁begin	-9.22329
▁ears	-9.22737
▁daughter	-9.22769
▁oer	-9.22993
▁poetry	-9.23241
▁least	-9.23644
there	-9.2373
▁catch	-9.23769
h	-9.23772
▁passed	-9.23922
▁dogs	-9.24092
▁rising	-9.2436
▁top	-9.24368
▁hed	-9.24377
▁tried	-9.24785
▁middle	-9.24889
▁ghost	-9.24911
▁wasnt	-9.24982
▁drop	-9.25015
▁angels	-9.25028
▁save	-9.25466
▁shoes	-9.25528
▁straight	-9.2562
▁lot	-9.26182
▁pure	-9.26233
p	-9.26313
▁holding	-9.27094
▁woods	-9.27273
▁start	-9.2743
▁youth	-9.27649
able	-9.2776
▁except	-9.27842
▁forest	-9.27979
▁desert	-9.28053
▁ancient	-9.28152
▁shade	-9.2817
▁weight	-9.28604
▁books	-9.28653
▁cast	-9.2873
▁finally	-9.28812
▁dress	-9.28901
▁short	-9.29126
▁winds	-9.29431
▁running	-9.29475
▁poems	-9.29621
▁neither	-9.29858
▁taste	-9.29901
▁ourselves	-9.29905
▁certain	-9.3004
le	-9.30243
▁knowing	-9.30254
▁weather	-9.30312
▁b	-9.30318
▁dirt	-9.30326
▁laugh	-9.30329
▁shed	-9.30681
▁clothes	-9.3072
▁prayer	-9.30761
▁ring	-9.30777
▁north	-9.30778
▁ran	-9.30888
▁hundred	-9.30952
▁sitting	-9.31042
▁houses	-9.31075
▁large	-9.3117
▁quick	-9.31364
▁storm	-9.31591
▁cat	-9.31597
▁west	-9.31606
▁sounds	-9.31731
▁chair	-9.32177
▁knees	-9.32352
▁herself	-9.32407
▁fill	-9.32866
which	-9.32917
▁path	-9.32953
▁iron	-9.32974
▁leaving	-9.33124
▁answer	-9.33175
▁coffee	-9.33192
▁lovers	-9.33223
▁step	-9.33331
▁tall	-9.33412
▁bar	-9.33492
▁closed	-9.33578
▁flat	-9.33637
ive	-9.33799
▁state	-9.33837
▁quite	-9.3393
b	-9.34107
▁gives	-9.34251
▁taking	-9.34337
▁hath	-9.34448
▁shut	-9.34523
▁hate	-9.34759
▁fresh	-9.3479
▁moved	-9.34825
▁stands	-9.34846
▁broke	-9.35376
▁wave	-9.35443
▁angel	-9.35583
...	-9.35583
▁follow	-9.3568
▁roof	-9.35682
▁voices	-9.35756
▁pull	-9.35758
▁purple	-9.35984
▁twenty	-9.36176
▁wing	-9.3622
▁branches	-9.36302
▁souls	-9.36444
▁reason	-9.36454
g	-9.36752
his	-9.36979
▁met	-9.37006
▁simple	-9.37027
▁anyone	-9.3725
▁poet	-9.3756
▁birth	-9.37679
▁page	-9.37891
▁view	-9.37984
our	-9.38288
▁forgotten	-9.38341
▁shes	-9.3844
▁chest	-9.38499
▁waters	-9.38511
▁sign	-9.38665
▁mud	-9.38917
▁steps	-9.39102
ies	-9.39629
▁songs	-9.39804
▁opened	-9.39828
▁blow	-9.40029
▁south	-9.40063
▁ways	-9.40248
▁kill	-9.40298
▁hidden	-9.40812
▁shot	-9.40894
▁passing	-9.41056
▁beat	-9.41303
▁t	-9.41326
▁carry	-9.41578
▁boat	-9.41606
▁either	-9.41648
▁flight	-9.41691
▁everywhere	-9.42589
▁worlds	-9.42704
▁stopped	-9.42946
▁rocks	-9.42955
▁writing	-9.43052
▁wound	-9.43093
▁doors	-9.43104
▁sorrow	-9.43358
▁apart	-9.43398
▁tonight	-9.43463
▁sleeping	-9.43496
▁fat	-9.43498
▁tired	-9.43542
do	-9.43581
▁glory	-9.44138
▁sunlight	-9.4426
▁fact	-9.44355
▁youve	-9.44383
▁finger	-9.44442
▁present	-9.44537
▁hide	-9.44823
▁became	-9.44916
▁plain	-9.45339
▁bent	-9.45407
▁mans	-9.45461
▁orange	-9.4549
,"	-9.45557
▁seven	-9.45569
▁image	-9.45573
▁miss	-9.45704
▁spread	-9.45823
un	-9.45839
▁2	-9.45842
te	-9.45854
▁bridge	-9.45873
▁cup	-9.45944
ous	-9.4597
▁laid	-9.46369
▁loud	-9.46414
▁spoke	-9.46448
▁ready	-9.46516
▁keeps	-9.4697
▁common	-9.47147
▁six	-9.47326
▁surface	-9.47427
▁places	-9.47572
▁lying	-9.47577
▁talking	-9.47743
▁grown	-9.4788
▁drive	-9.47899
▁order	-9.48096
▁moves	-9.48348
▁pretty	-9.48379
▁pray	-9.4845
▁lovely	-9.48572
▁store	-9.48608
▁sang	-9.48649
▁hat	-9.48787
▁tea	-9.48822
ah	-9.49021
▁loose	-9.49046
▁calm	-9.49091
▁distant	-9.49138
▁picture	-9.49215
k	-9.49216
▁lift	-9.49279
▁19	-9.49476
▁send	-9.495
▁asleep	-9.49669
▁shoulder	-9.49713
▁stream	-9.49832
▁miles	-9.4991
▁beach	-9.49991
oh	-9.50218
▁sudden	-9.50303
be	-9.50326
de	-9.50349
▁easy	-9.50453
▁hole	-9.50635
▁ride	-9.50879
▁sent	-9.50914
▁vain	-9.50918
▁question	-9.50937
▁wouldnt	-9.51304
▁animals	-9.51449
▁park	-9.51614
▁midnight	-9.51807
▁lead	-9.5189
now	-9.51912
▁rather	-9.52127
▁yard	-9.52327
▁shell	-9.52357
▁cars	-9.52541
▁game	-9.52635
▁bit	-9.52811
▁la	-9.52913
▁onto	-9.53036
▁oil	-9.53048
me	-9.53186
ch	-9.53457
▁buried	-9.53701
▁carried	-9.53726
▁reading	-9.53729
▁dusk	-9.53756
▁lit	-9.53871
▁nose	-9.53883
▁delight	-9.53927
▁lose	-9.53943
▁growing	-9.54
are	-9.54062
▁faith	-9.54249
▁lonely	-9.54326
▁afraid	-9.54357
▁shine	-9.5439
▁thine	-9.54516
▁whether	-9.5452
▁shame	-9.54636
▁lover	-9.54816
▁dull	-9.5484
▁count	-9.55081
▁sharp	-9.55227
▁tender	-9.55228
▁flies	-9.55263
▁hunger	-9.55271
▁meaning	-9.55467
▁sees	-9.55555
▁sick	-9.55585
▁letters	-9.55758
▁ah	-9.55885
▁holds	-9.55981
ion	-9.55995
▁news	-9.56088
▁shoulders	-9.56263
▁east	-9.56322
▁pulled	-9.56362
▁beginning	-9.56627
▁doing	-9.56934
▁grows	-9.56971
▁smooth	-9.57121
▁center	-9.5726
▁getting	-9.57308
▁breathing	-9.57384
▁worth	-9.57393
▁dim	-9.57462
▁ball	-9.575
men	-9.575
▁palm	-9.57657
▁hung	-9.57868
▁trust	-9.58314
▁fallen	-9.58515
▁wed	-9.58539
▁bitter	-9.5855
▁letter	-9.58665
▁roses	-9.5876
▁cries	-9.58767
some	-9.58851
▁gets	-9.58945
▁pick	-9.59229
▁safe	-9.59296
▁calls	-9.59364
▁roots	-9.59703
▁idea	-9.59727
▁meat	-9.59863
▁belly	-9.59884
▁wash	-9.59964
▁fate	-9.60135
▁lady	-9.60204
▁magic	-9.60249
▁parents	-9.60418
▁playing	-9.60535
▁changed	-9.60678
▁loss	-9.60851
▁torn	-9.60914
▁america	-9.60967
▁knife	-9.61064
▁tide	-9.61111
▁awake	-9.61234
▁note	-9.61238
▁calling	-9.61348
▁listening	-9.61459
▁tear	-9.61473
▁piece	-9.61631
▁plastic	-9.61637
▁animal	-9.6174
▁breathe	-9.61746
▁bell	-9.61796
▁autumn	-9.61879
▁laughter	-9.61997
▁cover	-9.62163
▁enter	-9.62503
▁chance	-9.62523
▁gaze	-9.62546
▁becomes	-9.62591
▁grey	-9.62673
▁happened	-9.62983
▁strength	-9.63067
▁frozen	-9.63085
▁notes	-9.63139
▁glad	-9.6315
▁ash	-9.63157
▁pine	-9.63355
▁gentle	-9.63446
▁honey	-9.63674
▁cried	-9.637
eyed	-9.63726
▁nest	-9.63843
▁spent	-9.63869
▁double	-9.64157
▁coat	-9.64159
▁metal	-9.64191
ity	-9.64608
while	-9.64966
▁skies	-9.64985
yet	-9.65016
▁3	-9.65198
nor	-9.65211
▁american	-9.6525
eth	-9.6538
▁wise	-9.65437
▁cause	-9.65567
your	-9.65608
▁proud	-9.65661
▁c	-9.65698
▁sings	-9.65807
▁case	-9.6587
▁breeze	-9.65919
▁wrote	-9.65923
▁force	-9.6598
▁corn	-9.65985
▁sweat	-9.66121
▁leg	-9.66125
▁circle	-9.66126
▁vision	-9.66191
▁colors	-9.66269
▁slept	-9.66292
▁endless	-9.66772
▁touched	-9.66793
▁week	-9.66911
let	-9.67086
▁burned	-9.67171
▁steel	-9.67177
▁painted	-9.67209
▁island	-9.67275
▁working	-9.67289
▁bag	-9.6742
▁kids	-9.6777
▁season	-9.6778
▁husband	-9.67852
▁hanging	-9.67866
▁seed	-9.6819
▁forward	-9.68196
▁sits	-9.68273
▁built	-9.6829
▁glow	-9.68304
▁lean	-9.6841
▁root	-9.6848
▁flying	-9.68678
down	-9.68837
▁seeing	-9.68869
▁mist	-9.69046
▁lightning	-9.69069
▁stories	-9.69417
▁although	-9.69586
▁english	-9.69704
▁frame	-9.69832
.)	-9.6984
old	-9.69844
▁speech	-9.69844
▁unto	-9.69901
▁terrible	-9.69945
▁sin	-9.70042
▁written	-9.70116
▁fog	-9.70136
▁pride	-9.7033
▁clay	-9.70333
▁shirt	-9.7034
▁killed	-9.70416
▁shining	-9.70416
▁john	-9.70464
▁race	-9.70478
▁bloom	-9.7051
▁started	-9.70596
▁nobody	-9.70615
▁seek	-9.70687
▁fit	-9.70693
▁master	-9.707
▁rivers	-9.70751
ish	-9.70892
▁limbs	-9.70914
▁appear	-9.71007
▁rooms	-9.71049
▁mark	-9.71067
▁horizon	-9.71112
▁huge	-9.71139
▁gate	-9.71183
▁buy	-9.71208
▁valley	-9.71212
▁mouths	-9.71306
(	-9.7134
▁feed	-9.71443
▁ship	-9.71458
▁taught	-9.71537
▁ends	-9.71638
▁pool	-9.71663
▁climb	-9.71686
red	-9.71802
▁noise	-9.71812
▁bank	-9.7186
▁pay	-9.71886
▁queen	-9.71907
v	-9.71937
).	-9.72083
▁tight	-9.72147
ce	-9.7217
▁machine	-9.72287
▁hungry	-9.72305
▁weep	-9.72335
▁doubt	-9.72491
▁poets	-9.72596
▁feels	-9.72643
▁horses	-9.72659
▁scent	-9.7282
▁sons	-9.72853
▁bow	-9.72904
▁bend	-9.73065
ful	-9.73101
▁needs	-9.73459
time	-9.73586
▁hurt	-9.73643
▁eternal	-9.73756
▁fight	-9.73887
▁tells	-9.73924
▁tis	-9.74032
light	-9.7406
▁gift	-9.74135
▁gather	-9.74245
▁possible	-9.7431
white	-9.74323
▁bees	-9.74329
▁sex	-9.74334
▁invisible	-9.74428
▁draw	-9.74497
▁row	-9.7452
▁mad	-9.74577
▁scene	-9.75005
▁bowl	-9.75023
▁deer	-9.75027
▁wooden	-9.7504
▁apple	-9.75598
▁narrow	-9.75604
▁screen	-9.75636
▁universe	-9.7567
▁brothers	-9.75798
▁happen	-9.75822
▁thank	-9.75899
▁crying	-9.76002
▁lifted	-9.76363
▁blank	-9.76376
▁parts	-9.76391
),	-9.76521
▁childhood	-9.76555
▁act	-9.76687
▁heavens	-9.7678
▁number	-9.76863
day	-9.76906
▁throw	-9.76934
▁begins	-9.77095
▁drunk	-9.77312
▁rises	-9.77329
▁hall	-9.77341
▁soldiers	-9.77356
▁minutes	-9.7739
▁played	-9.77398
▁feathers	-9.77407
▁figure	-9.77414
though	-9.77646
▁worn	-9.77689
▁share	-9.77757
▁thunder	-9.77809
▁wearing	-9.77835
why	-9.77846
tic	-9.77857
▁freedom	-9.77859
▁roll	-9.77885
▁tail	-9.77904
▁somehow	-9.77975
os	-9.7827
▁vast	-9.78286
▁noon	-9.7889
▁motion	-9.78994
▁stick	-9.7907
▁silk	-9.79246
was	-9.79355
▁york	-9.79418
▁dancing	-9.79427
▁phone	-9.79473
▁tongues	-9.79523
▁teach	-9.79578
▁ghosts	-9.79585
▁branch	-9.79597
▁laughing	-9.7982
into	-9.79824
▁promise	-9.79873
▁eating	-9.80047
▁shake	-9.80278
▁stare	-9.80287
▁forms	-9.80295
▁rage	-9.80299
▁walks	-9.80324
▁job	-9.80577
▁spot	-9.80643
▁snake	-9.80648
▁flood	-9.80685
▁wire	-9.80705
▁stuck	-9.80715
▁drawn	-9.80731
▁final	-9.808
▁cruel	-9.80845
▁wore	-9.8092
▁bound	-9.80978
▁raised	-9.81015
▁strangers	-9.81021
▁map	-9.81057
▁clock	-9.8114
▁unknown	-9.81325
▁hit	-9.81407
▁months	-9.81454
their	-9.8152
▁crown	-9.81527
▁covered	-9.81549
▁hollow	-9.81658
even	-9.81673
▁gun	-9.81743
▁village	-9.82096
▁bottom	-9.82114
▁despair	-9.82135
▁dreaming	-9.82222
▁pity	-9.8239
long	-9.82399
rs	-9.82409
ling	-9.82619
ne	-9.82658
▁law	-9.82716
▁familiar	-9.82858
▁opening	-9.82939
▁brave	-9.82959
▁daily	-9.83002
▁bus	-9.8313
▁simply	-9.83165
▁hang	-9.83187
▁absence	-9.83796
▁split	-9.83828
led	-9.83844
▁youd	-9.83889
▁post	-9.8399
id	-9.84337
f	-9.84395
▁flow	-9.84436
▁dew	-9.84441
▁sunday	-9.8451
▁woke	-9.84744
▁bay	-9.84831
▁seas	-9.85083
▁named	-9.85112
▁ii	-9.85528
ie	-9.85562
▁followed	-9.85567
▁fence	-9.85646
▁hardly	-9.85848
▁weary	-9.86033
▁rough	-9.86064
▁cities	-9.86168
▁third	-9.86296
▁faint	-9.8631
▁crowd	-9.86344
▁asks	-9.86364
▁brow	-9.86367
can	-9.86531
▁breaking	-9.86579
▁paint	-9.86726
ist	-9.86778
▁drinking	-9.86785
▁wheel	-9.86864
▁sigh	-9.86868
▁brings	-9.86921
▁knowledge	-9.87107
▁ahead	-9.87186
▁square	-9.87287
▁dropped	-9.87442
▁wanting	-9.87544
nt	-9.87602
▁sacred	-9.87758
▁happiness	-9.87759
▁cheek	-9.87783
▁evil	-9.87799
▁lawn	-9.87909
▁build	-9.88114
▁passion	-9.8823
▁breasts	-9.88295
▁divine	-9.88346
▁flag	-9.88375
▁floating	-9.88376
▁seat	-9.88676
▁oak	-9.88678
▁giving	-9.88696
▁breaks	-9.88716
▁dirty	-9.8874
▁recall	-9.88804
la	-9.88851
▁waking	-9.88855
▁forgot	-9.88986
▁pair	-9.8917
through	-9.89198
▁thinks	-9.89228
▁choose	-9.89335
▁presence	-9.89336
▁escape	-9.89455
weve	-9.89601
▁match	-9.89619
▁missing	-9.89735
▁christ	-9.89791
▁older	-9.89961
▁business	-9.89972
▁flash	-9.90047
▁speaking	-9.90062
▁truck	-9.90184
▁surely	-9.90263
▁runs	-9.90339
▁flew	-9.90403
▁sorry	-9.9052
▁waste	-9.90641
▁pocket	-9.90788
▁grand	-9.90986
▁dinner	-9.9108
u	-9.91099
▁dies	-9.91282
▁staring	-9.91323
▁exactly	-9.91348
▁smiles	-9.91349
▁block	-9.91398
▁guess	-9.9142
▁abandoned	-9.91467
▁fed	-9.91541
▁false	-9.91594
▁brush	-9.91609
▁remains	-9.91754
▁dressed	-9.91779
▁french	-9.91845
▁nice	-9.92087
▁ease	-9.92285
▁opens	-9.92298
▁sunset	-9.92324
▁thirty	-9.92485
▁minute	-9.92582
▁string	-9.92643
▁stranger	-9.92787
▁remain	-9.92803
▁company	-9.92815
▁moonlight	-9.92867
▁nowhere	-9.92935
▁bark	-9.93112
▁sink	-9.93151
▁works	-9.93268
▁station	-9.93323
over	-9.93379
▁bells	-9.93383
▁welcome	-9.93719
▁public	-9.93841
go	-9.94007
▁egg	-9.94171
▁burst	-9.9446
▁mid	-9.94725
▁boots	-9.94818
▁weeks	-9.94824
▁porch	-9.94904
▁radio	-9.95132
▁soil	-9.95205
▁thread	-9.95304
▁lip	-9.95569
ry	-9.95618
▁sheets	-9.95622
▁bottle	-9.95699
▁sort	-9.95924
▁marble	-9.96094
▁minds	-9.96192
▁dumb	-9.96211
▁broad	-9.96252
▁wrapped	-9.96348
▁ashes	-9.96356
▁raise	-9.96379
▁chicken	-9.96474
▁roads	-9.96503
▁echo	-9.96512
▁numbers	-9.96514
▁smiling	-9.96534
▁foam	-9.9663
▁sugar	-9.96634
um	-9.96645
have	-9.96804
▁terror	-9.96928
▁fur	-9.97036
▁sisters	-9.97074
▁during	-9.97223
▁pre	-9.97264
▁stairs	-9.97345
▁drove	-9.97467
▁plant	-9.97476
▁barely	-9.97499
▁building	-9.9759
▁knee	-9.97817
▁christmas	-9.97828
▁pieces	-9.97852
▁weeds	-9.97903
▁memories	-9.97953
▁cell	-9.97987
▁tomorrow	-9.98095
▁grain	-9.98108
▁nearly	-9.98128
▁telling	-9.98152
▁gay	-9.98473
&	-9.9848
▁giant	-9.98489
z	-9.98556
▁length	-9.98674
▁bless	-9.98991
▁delicate	-9.99001
▁seeds	-9.9902
ring	-9.9907
▁dreamed	-9.99122
▁worse	-9.99168
▁join	-9.99306
▁natural	-9.99355
▁rings	-9.99389
▁win	-9.99405
▁spirits	-9.99555
▁blade	-9.99569
▁swim	-9.99614
▁rolled	-9.99641
▁desk	-9.99844
▁battle	-10.0001
▁speed	-10.0039
▁leather	-10.0048
▁slip	-10.0053
▁yesterday	-10.0054
off	-10.0054
▁4	-10.0055
▁quickly	-10.0066
▁eternity	-10.0102
▁fires	-10.0112
black	-10.0124
▁grandmother	-10.0131
▁hast	-10.0137
▁weeping	-10.0158
▁landscape	-10.0161
▁blown	-10.0162
▁kissed	-10.0164
▁comfort	-10.0165
▁choice	-10.0166
▁weak	-10.0172
▁yours	-10.0196
▁led	-10.0204
▁lack	-10.0217
▁tower	-10.022
▁shit	-10.0224
▁angry	-10.0227
▁frost	-10.0246
▁lamp	-10.0256
▁happens	-10.0265
▁gas	-10.0272
▁veins	-10.0273
▁fancy	-10.0277
▁prove	-10.029
▁dare	-10.029
▁skull	-10.0293
▁search	-10.032
age	-10.0321
▁won	-10.0324
▁eight	-10.0324
▁mystery	-10.0327
tis	-10.0327
ur	-10.0329
▁size	-10.0332
▁bought	-10.0335
▁pen	-10.0337
▁hotel	-10.0366
▁forehead	-10.0369
▁shook	-10.0371
▁ships	-10.0385
▁crossed	-10.0387
▁ink	-10.0395
▁jesus	-10.0397
house	-10.0398
▁lap	-10.0401
just	-10.0418
▁ma	-10.0437
▁pot	-10.0451
▁waits	-10.0453
▁ere	-10.0459
▁luck	-10.0461
▁consider	-10.0471
were	-10.0472
ment	-10.0474
▁shells	-10.0479
▁million	-10.0482
▁beer	-10.0492
▁track	-10.0495
▁twilight	-10.0497
▁attention	-10.0497
▁apples	-10.05
▁trembling	-10.0509
▁further	-10.052
▁march	-10.0521
▁placed	-10.0525
▁month	-10.0539
▁drew	-10.0545
▁trouble	-10.0552
well	-10.0567
▁en	-10.0572
▁damp	-10.0577
▁closer	-10.0577
w	-10.058
▁drops	-10.0589
▁rolling	-10.0594
▁saint	-10.0607
▁pond	-10.0611
▁easily	-10.0612
!"	-10.0613
▁wisdom	-10.0625
▁mercy	-10.0626
▁class	-10.0628
▁flames	-10.0632
▁measure	-10.0638
▁longing	-10.0656
▁softly	-10.066
▁slight	-10.067
▁therefore	-10.0671
▁worked	-10.0671
▁kings	-10.0678
▁w	-10.0685
▁suffering	-10.069
▁indian	-10.0698
▁push	-10.0706
▁appears	-10.0721
▁sheep	-10.0733
▁neighbors	-10.0742
1	-10.0755
▁twelve	-10.0758
▁cracked	-10.076
▁whisper	-10.0762
▁strike	-10.0763
▁blows	-10.0763
▁float	-10.0766
▁signs	-10.077
▁locked	-10.0784
▁hid	-10.0793
▁womans	-10.0795
▁ate	-10.0802
▁party	-10.0805
▁rope	-10.0829
▁steady	-10.0839
▁doctor	-10.0847
▁deeper	-10.0849
▁moments	-10.0854
▁century	-10.0864
▁edges	-10.0882
▁towards	-10.0905
▁april	-10.0906
▁daughters	-10.0913
▁petals	-10.0921
▁paradise	-10.0945
▁eggs	-10.0951
▁busy	-10.0954
▁mighty	-10.0958
▁notice	-10.0959
ted	-10.0977
▁painting	-10.0991
whose	-10.0996
▁purpose	-10.0997
na	-10.101
year	-10.1011
▁mass	-10.1013
▁trace	-10.1016
▁shop	-10.102
▁forgive	-10.103
▁thrown	-10.1031
▁beating	-10.1032
▁married	-10.1036
▁gathered	-10.1036
after	-10.1049
▁arrive	-10.1056
▁needed	-10.1071
▁anger	-10.1073
▁remembered	-10.1075
▁tin	-10.1081
▁fame	-10.1087
▁holes	-10.1088
▁believed	-10.1096
3	-10.1096
▁key	-10.1112
▁k	-10.1129
▁behold	-10.1142
▁famous	-10.1151
▁rush	-10.1155
▁beast	-10.1155
▁brief	-10.1157
▁twice	-10.1165
▁sadness	-10.1174
▁woe	-10.1177
▁blame	-10.119
▁spend	-10.1196
▁fool	-10.12
▁plate	-10.1205
et	-10.121
▁band	-10.1211
here	-10.1224
▁tune	-10.1228
▁pressed	-10.1229
still	-10.1229
▁traffic	-10.1237
▁impossible	-10.1238
▁office	-10.124
▁iii	-10.1243
▁mask	-10.1246
▁deaths	-10.1248
▁con	-10.1254
▁backs	-10.1266
▁fills	-10.1284
▁shapes	-10.1285
▁paid	-10.1289
▁shows	-10.1289
▁drift	-10.1289
▁journey	-10.1292
▁stage	-10.1293
▁changing	-10.1294
▁bloody	-10.1302
▁fifty	-10.1319
▁somebody	-10.1321
▁burns	-10.1337
am	-10.1359
▁struck	-10.136
▁problem	-10.1365
▁bars	-10.1377
▁blossoms	-10.138
▁asking	-10.1411
▁soup	-10.1412
▁wit	-10.1412
▁gently	-10.1419
▁planet	-10.1431
▁hangs	-10.1432
▁despite	-10.1445
▁rare	-10.147
▁mary	-10.147
▁august	-10.1474
come	-10.1477
▁dis	-10.1477
4	-10.1483
▁hearing	-10.1489
▁swift	-10.149
▁hospital	-10.1492
ra	-10.1502
▁constant	-10.1526
▁pages	-10.1526
▁kisses	-10.1531
▁unless	-10.1535
▁higher	-10.1548
▁loving	-10.1555
▁equal	-10.156
▁dread	-10.156
▁ha	-10.1589
▁chairs	-10.1589
▁anymore	-10.1592
▁sail	-10.1595
▁sword	-10.1596
▁spit	-10.1626
▁sake	-10.1629
▁travel	-10.163
▁alas	-10.163
▁stuff	-10.1648
▁content	-10.166
green	-10.1668
▁changes	-10.1673
▁swallow	-10.1683
▁bliss	-10.1683
▁washed	-10.1695
▁fist	-10.1716
ter	-10.1721
▁arent	-10.1723
▁wars	-10.1725
▁stayed	-10.1727
▁mornings	-10.1729
▁finds	-10.1729
▁creature	-10.173
▁drag	-10.1737
▁barn	-10.1741
▁hopes	-10.175
▁chain	-10.1751
▁crows	-10.1755
▁creatures	-10.1757
back	-10.1759
▁needle	-10.1763
▁disappear	-10.1768
these	-10.1778
▁cave	-10.1785
▁border	-10.1788
▁returned	-10.1789
lit	-10.1804
!—	-10.1806
▁mostly	-10.1811
▁offer	-10.1812
▁p	-10.1813
▁june	-10.1824
▁laughed	-10.1851
▁press	-10.1853
▁suns	-10.1862
▁sought	-10.1866
▁police	-10.1881
▁anyway	-10.189
▁cats	-10.1895
▁stretched	-10.19
will	-10.1903
▁corners	-10.1905
x	-10.1906
love	-10.1907
▁cream	-10.1907
▁fled	-10.1916
▁claim	-10.192
0	-10.1922
▁keeping	-10.1923
land	-10.1925
▁thighs	-10.1928
▁riding	-10.193
▁awful	-10.1931
▁raw	-10.1933
▁pictures	-10.1941
ill	-10.1946
▁graves	-10.1948
▁lace	-10.1959
▁crow	-10.1968
▁crack	-10.1975
▁cheeks	-10.1975
▁amid	-10.1997
el	-10.2004
▁ceiling	-10.2009
2	-10.2011
▁fail	-10.2011
!)	-10.2014
▁stiff	-10.2014
▁chin	-10.2026
▁stops	-10.2027
because	-10.2035
▁suit	-10.2035
▁drank	-10.2035
▁passes	-10.2049
▁probably	-10.2063
▁steam	-10.2071
▁nurse	-10.2071
▁sides	-10.2071
▁blossom	-10.2073
▁images	-10.2074
▁chinese	-10.2075
night	-10.2075
▁marriage	-10.2101
▁picked	-10.211
▁driving	-10.2111
▁favorite	-10.2111
▁wandering	-10.2123
▁movie	-10.2129
▁speaks	-10.2141
▁dad	-10.2152
▁palms	-10.2156
▁learning	-10.2164
▁pretend	-10.218
▁pause	-10.2184
▁leaning	-10.2189
▁thirst	-10.219
▁beloved	-10.2198
▁wedding	-10.2198
colored	-10.2209
▁wander	-10.2213
▁pearl	-10.2218
▁gates	-10.2219
▁guy	-10.2224
▁study	-10.2225
▁reached	-10.2234
▁foreign	-10.2238
▁thumb	-10.2245
▁worst	-10.2264
▁fixed	-10.2265
▁difficult	-10.2265
▁needles	-10.2267
▁butter	-10.2288
▁local	-10.2291
▁dusty	-10.2304
▁odd	-10.2308
▁scream	-10.2308
▁underneath	-10.231
more	-10.2313
▁honor	-10.2324
▁candle	-10.2325
yes	-10.2336
▁f	-10.234
▁rice	-10.2351
▁failed	-10.2359
▁general	-10.2365
▁fierce	-10.2374
▁however	-10.2375
▁prison	-10.2377
▁difference	-10.2379
▁cloth	-10.2387
▁pour	-10.2408
ent	-10.242
▁dried	-10.242
▁soldier	-10.242
▁electric	-10.2428
▁spine	-10.2449
▁farm	-10.245
▁entered	-10.2451
▁glorious	-10.2451
▁tomb	-10.2469
▁mute	-10.2472
▁hum	-10.2473
▁lifts	-10.2475
▁wheels	-10.2479
▁joke	-10.2481
▁sleeps	-10.2483
▁waited	-10.2485
▁infinite	-10.2491
▁cotton	-10.2497
▁theyd	-10.2497
▁fix	-10.2501
▁direction	-10.2503
▁court	-10.2504
▁buildings	-10.2506
▁separate	-10.2511
▁arrived	-10.2516
▁forty	-10.2537
▁slide	-10.2546
▁bush	-10.2548
▁curtain	-10.2554
▁tied	-10.2558
born	-10.2564
▁height	-10.2568
▁sheet	-10.2575
▁bullet	-10.2578
▁inner	-10.2582
▁meadow	-10.2589
▁wears	-10.2598
▁market	-10.2603
▁visit	-10.2603
▁wept	-10.2605
▁mortal	-10.2606
ant	-10.2608
▁gathering	-10.261
ha	-10.261
▁x	-10.2617
▁indeed	-10.262
▁carved	-10.2629
▁joys	-10.263
▁carrying	-10.2635
▁virtue	-10.2635
▁sticks	-10.2637
▁sway	-10.2647
▁native	-10.2651
▁embrace	-10.2657
only	-10.2658
▁lo	-10.2666
▁beds	-10.2672
▁ours	-10.2682
?"	-10.2682
▁glasses	-10.2682
▁crazy	-10.2683
▁loneliness	-10.2684
▁lifes	-10.2687
▁aside	-10.2692
▁wax	-10.27
▁trade	-10.2708
▁rows	-10.2714
▁labor	-10.272
▁jump	-10.2724
il	-10.2725
▁trail	-10.2734
▁tip	-10.2737
▁chill	-10.2738
▁ordinary	-10.2738
▁pulse	-10.2751
▁touching	-10.2757
▁hiding	-10.2762
▁uncle	-10.2771
▁spell	-10.2772
line	-10.2778
▁explain	-10.2778
▁witness	-10.2794
▁swimming	-10.2799
▁roar	-10.2801
▁5	-10.2805
▁otherwise	-10.2822
way	-10.2823
▁worry	-10.2826
▁points	-10.2832
▁threw	-10.2833
▁apartment	-10.2836
▁wrist	-10.2837
▁base	-10.2837
▁lunch	-10.2838
▁tracks	-10.2851
▁mirrors	-10.2858
▁cheap	-10.286
▁unseen	-10.2881
ta	-10.2882
▁becoming	-10.2887
▁sweep	-10.2891
▁understood	-10.2902
▁remembering	-10.2903
▁nine	-10.2907
▁stir	-10.2918
▁whispering	-10.2925
▁lungs	-10.293
▁blowing	-10.2944
▁emptiness	-10.2945
▁visible	-10.2945
▁bore	-10.2954
▁straw	-10.2974
▁warmth	-10.2975
▁ex	-10.2984
▁ruin	-10.2986
▁private	-10.2993
▁daylight	-10.3011
▁feather	-10.3012
▁wheat	-10.3017
▁list	-10.3021
▁blessed	-10.303
?)	-10.3035
▁swing	-10.3036
co	-10.3044
▁pleasant	-10.306
▁screaming	-10.3066
▁surprise	-10.307
▁bite	-10.3073
▁starts	-10.3082
▁fade	-10.3085
thou	-10.3104
▁cage	-10.3104
▁seasons	-10.3106
▁lone	-10.3123
▁exist	-10.3129
▁curse	-10.3133
▁carefully	-10.3137
▁lands	-10.3141
▁gloom	-10.3145
▁leap	-10.3149
▁lion	-10.315
▁several	-10.3152
▁begun	-10.3158
▁twisted	-10.3164
▁crystal	-10.3166
▁kid	-10.3166
▁enemy	-10.3169
▁army	-10.3174
▁swept	-10.3178
▁gardens	-10.3186
▁pulling	-10.3202
▁nation	-10.3202
▁bee	-10.321
▁shoot	-10.3211
▁v	-10.3213
▁summers	-10.3219
▁suppose	-10.3221
▁boats	-10.323
▁fox	-10.3232
▁verse	-10.3241
▁horn	-10.3249
▁solid	-10.325
till	-10.3251
▁drowned	-10.3253
▁shout	-10.3263
▁g	-10.3269
▁goodbye	-10.3275
ia	-10.3276
▁following	-10.3283
▁pines	-10.3285
▁lightly	-10.3289
▁important	-10.3293
▁wounds	-10.3309
▁instant	-10.3333
▁havent	-10.3334
did	-10.3339
▁burnt	-10.3339
▁shift	-10.3342
▁rust	-10.3357
▁complete	-10.3361
▁springs	-10.3366
▁quietly	-10.3367
▁velvet	-10.3367
▁arch	-10.3369
▁pile	-10.3376
▁practice	-10.3385
▁finding	-10.3396
▁tale	-10.3398
▁eaten	-10.3406
▁breakfast	-10.3408
▁fortune	-10.3411
▁eyelids	-10.3416
▁reaching	-10.3418
▁coast	-10.342
▁existence	-10.3422
▁pipe	-10.3424
▁subject	-10.3424
▁lily	-10.3427
▁liquid	-10.3436
▁jack	-10.3442
▁plan	-10.3442
▁text	-10.3443
▁saved	-10.3461
▁nails	-10.3462
▁setting	-10.3477
▁film	-10.3479
▁add	-10.3481
▁expect	-10.3483
▁keys	-10.3491
▁courage	-10.3495
▁dig	-10.3503
▁plants	-10.3504
▁scorn	-10.3507
▁scarce	-10.351
▁heap	-10.351
▁drown	-10.3511
▁check	-10.3511
▁special	-10.3513
▁stretch	-10.3525
▁patient	-10.3528
▁trunk	-10.3531
▁folded	-10.3538
▁fears	-10.354
▁bears	-10.3545
▁level	-10.3557
▁questions	-10.3557
▁waving	-10.356
▁spider	-10.3565
▁sighs	-10.3566
ation	-10.3582
▁service	-10.3583
▁fold	-10.3586
▁merely	-10.3589
▁ripe	-10.3603
thy	-10.3605
▁counter	-10.3608
than	-10.3615
▁morn	-10.3646
da	-10.3653
▁pillow	-10.3655
▁ladies	-10.3672
▁mr	-10.3687
▁wounded	-10.369
▁able	-10.3693
▁laws	-10.3699
▁pattern	-10.3701
▁circles	-10.3709
▁smiled	-10.3713
▁san	-10.3714
ian	-10.3719
▁slave	-10.3719
?—	-10.3727
▁shoe	-10.3741
ga	-10.3742
▁bedroom	-10.3744
ro	-10.3761
▁bottles	-10.377
ts	-10.3771
▁moons	-10.379
▁flung	-10.3794
▁stupid	-10.38
▁truly	-10.3809
▁imagined	-10.3814
▁plane	-10.3815
▁streams	-10.3819
▁skirt	-10.3838
▁paris	-10.3841
▁bags	-10.3841
▁spin	-10.3844
▁whispered	-10.385
▁dost	-10.3862
▁curve	-10.3878
▁devil	-10.388
▁tv	-10.3885
▁neighbor	-10.3886
▁upward	-10.3888
▁imagination	-10.3899
▁dove	-10.39
▁stroke	-10.3909
▁action	-10.3911
▁shines	-10.3913
▁scattered	-10.3929
▁per	-10.3935
ier	-10.3936
▁careful	-10.3936
▁message	-10.3942
▁spanish	-10.3942
▁swell	-10.3948
▁lower	-10.395
▁pockets	-10.3956
▁h	-10.3957
▁shades	-10.3958
ar	-10.3961
▁immortal	-10.3965
▁th	-10.3967
▁drifting	-10.3967
▁spray	-10.3968
▁wealth	-10.397
▁lust	-10.3982
about	-10.3986
▁carries	-10.3993
▁childs	-10.3994
▁earths	-10.3995
▁fun	-10.3995
▁pack	-10.4023
faced	-10.4023
▁serve	-10.4025
water	-10.4026
▁pitch	-10.4029
▁liberty	-10.4033
▁paths	-10.4039
▁spare	-10.4058
▁danger	-10.4059
ally	-10.4062
▁slick	-10.4073
▁particular	-10.4083
▁especially	-10.4087
▁sell	-10.4094
▁shower	-10.4099
▁lock	-10.41
▁liked	-10.4102
▁na	-10.4103
▁chorus	-10.4112
▁rabbit	-10.4113
▁brick	-10.4113
▁suffer	-10.4118
▁shaking	-10.4125
▁deck	-10.4127
▁blew	-10.4129
▁shy	-10.4131
▁current	-10.4133
▁slightly	-10.4136
▁marks	-10.4139
▁filling	-10.4144
▁sour	-10.4149
▁pushed	-10.4149
▁stomach	-10.4154
▁tread	-10.4158
▁blues	-10.4159
▁burden	-10.4161
▁cliff	-10.4163
▁conversation	-10.4164
▁creek	-10.4166
▁draws	-10.4174
▁killing	-10.4175
▁concrete	-10.4176
▁farther	-10.4178
under	-10.4182
▁blast	-10.4184
▁harm	-10.4193
▁lucky	-10.42
▁wherever	-10.4202
▁curtains	-10.4202
▁bronze	-10.4203
▁main	-10.4213
5	-10.4215
▁fan	-10.4225
▁entirely	-10.4226
▁tie	-10.4232
▁mistake	-10.4246
▁beard	-10.4249
▁finished	-10.425
▁em	-10.4259
▁greater	-10.4264
▁tooth	-10.4272
▁cap	-10.4275
▁ache	-10.4275
▁lifting	-10.4276
▁guns	-10.4292
▁piano	-10.4297
made	-10.4298
▁heres	-10.4298
▁fever	-10.4308
two	-10.431
▁stain	-10.431
▁wilderness	-10.4314
▁shalt	-10.4314
▁frail	-10.4317
▁guard	-10.4323
▁glance	-10.4328
ton	-10.433
head	-10.4331
▁disappeared	-10.4335
▁cutting	-10.4336
▁spoon	-10.4343
▁temple	-10.4344
▁opposite	-10.4344
side	-10.436
▁centuries	-10.4364
▁fuck	-10.4371
▁mild	-10.4377
▁bleeding	-10.4378
▁china	-10.4383
per	-10.4383
▁whale	-10.4384
▁funeral	-10.4394
▁chains	-10.4399
mo	-10.4402
▁doctors	-10.4406
▁moss	-10.4415
▁anywhere	-10.4421
▁glittering	-10.4422
▁thanks	-10.4429
▁sweetness	-10.4429
▁perfectly	-10.4437
les	-10.444
▁cigarette	-10.444
▁lamb	-10.4441
▁sidewalk	-10.4441
▁prayers	-10.4441
▁mom	-10.4441
▁highway	-10.4443
▁smells	-10.4445
der	-10.445
▁guide	-10.445
▁tossed	-10.4457
▁knock	-10.4459
▁mama	-10.4469
▁mere	-10.4472
▁hurry	-10.4481
▁hail	-10.4493
▁bomb	-10.4496
▁muse	-10.4503
▁patience	-10.4505
▁farewell	-10.4506
five	-10.4509
▁sold	-10.451
▁echoes	-10.4511
▁couple	-10.4515
▁swear	-10.4516
▁mourning	-10.4521
▁muscle	-10.4521
▁bits	-10.4523
▁aint	-10.4528
▁planted	-10.4532
▁birthday	-10.4537
▁swollen	-10.4541
▁lilies	-10.4542
▁folks	-10.4543
▁teacher	-10.4544
▁puts	-10.4546
▁hips	-10.4546
▁patch	-10.4549
se	-10.4559
▁hero	-10.456
▁stillness	-10.456
each	-10.456
▁stem	-10.4566
▁babies	-10.4577
ty	-10.4578
▁pants	-10.4586
▁harvest	-10.4591
▁camera	-10.4594
▁record	-10.4599
▁merry	-10.4602
▁banks	-10.4602
▁worms	-10.4606
▁wool	-10.4607
▁smart	-10.4608
▁cells	-10.461
▁toil	-10.4616
▁date	-10.4626
▁trick	-10.463
▁enormous	-10.4633
▁virgin	-10.4637
▁translated	-10.4641
▁avenue	-10.4653
▁plains	-10.4662
▁mix	-10.4665
▁storms	-10.4676
▁natures	-10.4676
▁plays	-10.469
▁bosom	-10.4691
▁ended	-10.4692
▁entire	-10.4693
▁gravel	-10.4696
▁moth	-10.4699
▁void	-10.4699
▁cattle	-10.47
▁ugly	-10.47
▁grasses	-10.4703
▁horror	-10.4707
work	-10.4708
▁sets	-10.4715
▁hay	-10.4723
▁rat	-10.4728
▁blur	-10.4732
▁curious	-10.4732
▁climbed	-10.4736
▁wilt	-10.4742
▁oft	-10.4744
dont	-10.4748
▁cease	-10.4748
▁heels	-10.4754
▁mood	-10.4755
▁secrets	-10.4757
▁finish	-10.4759
▁curled	-10.4765
ism	-10.4773
▁oceans	-10.4781
▁cups	-10.4781
▁fond	-10.4787
▁various	-10.4792
▁knives	-10.4794
▁cake	-10.4799
▁fought	-10.4799
▁library	-10.4799
▁jar	-10.4806
▁firm	-10.4827
▁polished	-10.4849
▁crushed	-10.4849
▁cow	-10.4849
▁darling	-10.4853
▁restless	-10.4857
▁noble	-10.4863
▁example	-10.4863
blue	-10.4863
▁rats	-10.4864
before	-10.4865
nothing	-10.4868
▁sir	-10.4875
▁useless	-10.4882
▁relief	-10.4894
▁returning	-10.4896
▁spinning	-10.4901
▁tho	-10.4902
▁rode	-10.4907
▁gain	-10.491
▁flags	-10.4912
▁bride	-10.4918
▁poured	-10.492
▁coal	-10.4921
▁gleam	-10.4924
▁pigeons	-10.4931
▁arrow	-10.4944
▁crossing	-10.4954
▁bull	-10.4958
▁gown	-10.4963
▁survive	-10.4972
▁veil	-10.4975
▁wondering	-10.4979
▁owl	-10.4979
▁treasure	-10.4989
▁gravity	-10.4995
▁hadnt	-10.4997
▁usual	-10.4998
▁rhyme	-10.5002
▁england	-10.5009
▁cares	-10.5014
ate	-10.502
9	-10.5028
▁pig	-10.5034
▁rhythm	-10.5036
▁miracle	-10.5037
▁photograph	-10.5042
▁idle	-10.5051
▁deaf	-10.5058
▁worm	-10.5062
▁dome	-10.5065
wood	-10.5067
▁hence	-10.5072
▁pan	-10.5073
▁mouse	-10.5076
▁stolen	-10.5078
▁net	-10.5081
▁fountain	-10.5083
▁rome	-10.5083
▁serious	-10.509
▁bill	-10.5092
▁blanket	-10.5093
▁candles	-10.5095
look	-10.51
▁system	-10.5101
▁justice	-10.5105
▁source	-10.5112
▁overhead	-10.5114
▁violence	-10.5119
▁precious	-10.5119
▁supposed	-10.5121
▁prey	-10.5122
▁recognize	-10.5123
▁creation	-10.5138
▁object	-10.5138
▁greet	-10.5139
▁rubber	-10.5148
▁don	-10.515
▁dangerous	-10.515
▁missed	-10.515
▁closet	-10.5151
▁smaller	-10.5152
▁stripped	-10.5157
▁museum	-10.5173
▁listened	-10.5173
▁strings	-10.5176
▁forced	-10.5181
▁wrought	-10.5184
▁web	-10.519
▁showed	-10.5191
▁meanwhile	-10.5195
▁rot	-10.5198
▁pulls	-10.5205
▁bold	-10.5208
▁mixed	-10.5209
▁slipped	-10.521
▁cock	-10.5215
▁bearing	-10.5218
▁struggle	-10.5222
▁spite	-10.5231
▁london	-10.5239
▁appeared	-10.5243
▁regret	-10.5248
▁feast	-10.526
▁faded	-10.5263
▁release	-10.5267
▁din	-10.5269
▁ants	-10.5273
▁mrs	-10.5277
▁tunnel	-10.5279
▁beats	-10.5281
“	-10.5283
▁shelter	-10.5284
▁sung	-10.5293
▁beasts	-10.5303
▁poison	-10.5309
▁m	-10.531
▁grandfather	-10.531
▁command	-10.5311
▁el	-10.5322
▁larger	-10.533
▁cost	-10.5334
que	-10.5339
see	-10.5341
▁juice	-10.5343
▁neighborhood	-10.5349
▁vines	-10.5372
▁nail	-10.5379
▁prize	-10.5392
▁board	-10.5394
would	-10.5402
▁mail	-10.5403
▁brass	-10.5409
▁ought	-10.5415
▁ages	-10.5433
▁papers	-10.5435
▁basement	-10.5435
▁soap	-10.5436
▁noticed	-10.5439
▁heavenly	-10.5439
▁female	-10.5449
▁maple	-10.5458
ho	-10.5459
▁card	-10.5463
▁dwell	-10.5465
▁innocent	-10.5466
▁ruined	-10.547
▁chocolate	-10.5471
▁pointed	-10.5475
▁remind	-10.5475
▁closing	-10.5478
▁vanished	-10.5484
▁brilliant	-10.5486
▁photo	-10.5487
▁wondered	-10.5487
▁president	-10.549
▁engine	-10.5493
▁slaves	-10.5493
▁chase	-10.5496
▁ruins	-10.5497
▁trash	-10.55
ma	-10.5507
▁trains	-10.5507
▁due	-10.5509
▁peach	-10.5516
▁test	-10.5518
▁decay	-10.5525
▁whispers	-10.5525
▁fault	-10.5528
.“	-10.5529
such	-10.5536
▁belt	-10.5537
▁fashion	-10.5541
▁elsewhere	-10.5549
▁pleasures	-10.5557
▁eve	-10.556
▁solitude	-10.5562
▁pavement	-10.5562
▁jacket	-10.5564
▁pin	-10.5572
▁answered	-10.5578
▁hawk	-10.558
ary	-10.5585
▁objects	-10.5588
▁hook	-10.5589
▁floors	-10.5606
▁tent	-10.5609
▁completely	-10.5609
▁wished	-10.561
bound	-10.5612
ke	-10.5613
until	-10.562
▁foolish	-10.5621
▁receive	-10.5623
shaped	-10.5624
▁floats	-10.5626
▁wolf	-10.5628
▁foul	-10.5631
▁thrust	-10.5632
▁climbing	-10.5645
▁stared	-10.5649
▁actually	-10.5651
▁tries	-10.5653
▁admit	-10.5662
▁blades	-10.5662
▁bat	-10.5662
▁winters	-10.5662
▁drum	-10.5674
▁glowing	-10.5675
▁steep	-10.5675
▁evenings	-10.568
▁harbor	-10.5689
▁crime	-10.5708
▁beams	-10.5708
▁inward	-10.5735
▁male	-10.5736
▁answers	-10.5743
▁amber	-10.5743
▁moan	-10.5751
headed	-10.5758
▁cherry	-10.5761
▁driven	-10.577
▁furniture	-10.5773
▁basket	-10.5775
▁roman	-10.5781
▁kingdom	-10.5782
▁passage	-10.5784
▁boughs	-10.5785
▁quarter	-10.5792
▁daddy	-10.5805
▁younger	-10.5807
▁experience	-10.5811
▁wakes	-10.5819
▁whos	-10.5822
▁rains	-10.5829
▁copper	-10.5837
▁western	-10.5845
▁homes	-10.585
▁surrounded	-10.5854
▁refuse	-10.5854
▁swinging	-10.5873
▁pace	-10.5877
ri	-10.5882
▁fragile	-10.5883
▁dragged	-10.5883
▁glide	-10.5888
▁gifts	-10.5888
▁flock	-10.5892
▁ribs	-10.5892
▁plates	-10.5895
▁movement	-10.5895
▁returns	-10.5898
▁maid	-10.5903
▁towers	-10.5907
▁flowing	-10.5909
▁mess	-10.5913
▁worship	-10.5921
▁twist	-10.5931
▁trip	-10.5942
▁vine	-10.5943
▁slips	-10.5947
▁tone	-10.5964
▁figures	-10.5965
▁frog	-10.5967
▁bald	-10.5974
tell	-10.5977
▁wishes	-10.5978
▁wonderful	-10.598
▁steal	-10.598
▁beads	-10.5984
▁charm	-10.5988
▁deal	-10.5992
▁meeting	-10.5993
▁funny	-10.5995
▁continue	-10.5995
▁nod	-10.6003
▁belief	-10.6004
▁cedar	-10.6004
▁ladder	-10.6006
▁throne	-10.6008
▁clearly	-10.6008
▁allow	-10.6009
▁whenever	-10.6012
▁thousands	-10.6019
▁cards	-10.603
▁leads	-10.6037
▁pluck	-10.6038
▁enjoy	-10.6039
▁personal	-10.604
▁handle	-10.6045
▁camp	-10.6049
▁chamber	-10.605
▁fourth	-10.6051
▁core	-10.6052
▁watches	-10.6055
▁dropping	-10.6058
▁inch	-10.6063
▁smoking	-10.6065
▁diamond	-10.6066
▁express	-10.6069
▁audience	-10.6071
▁bathroom	-10.6071
▁intent	-10.6074
▁crooked	-10.6078
▁spoken	-10.6082
▁thigh	-10.6085
▁greek	-10.6089
▁forests	-10.609
▁bid	-10.6091
▁gleaming	-10.6093
▁1.	-10.6093
▁style	-10.6095
▁melt	-10.6098
▁hey	-10.6098
▁honour	-10.61
▁shakes	-10.6105
▁balance	-10.6109
▁gin	-10.611
em	-10.6117
▁senses	-10.6117
▁waist	-10.6118
▁balls	-10.612
▁marked	-10.612
▁health	-10.6122
▁counting	-10.6123
▁skill	-10.6124
god	-10.6127
▁thro	-10.6131
▁attempt	-10.6132
▁bath	-10.6133
▁october	-10.6137
▁beak	-10.6141
▁womb	-10.6154
▁pencil	-10.6156
those	-10.6158
▁iv	-10.6162
say	-10.6163
▁wasted	-10.6166
sweet	-10.6168
▁repeat	-10.6168
too	-10.6173
▁protect	-10.6175
▁couch	-10.6181
▁sting	-10.6183
▁triumph	-10.6184
▁+++++++++++++	-10.6184
▁innocence	-10.6184
▁discover	-10.6188
▁stray	-10.6195
thats	-10.6206
▁pole	-10.6207
▁shock	-10.6214
▁cure	-10.6219
lo	-10.6221
▁spun	-10.6221
▁feelings	-10.6222
▁dense	-10.6225
▁beam	-10.6229
▁grim	-10.6233
▁prayed	-10.6236
▁odor	-10.6238
▁prefer	-10.6242
▁rules	-10.6242
ial	-10.6243
▁hush	-10.6249
▁willing	-10.6261
▁fighting	-10.6274
▁icy	-10.628
▁rude	-10.628
▁faithful	-10.6281
take	-10.6282
▁sliding	-10.6283
most	-10.6285
▁pouring	-10.6289
▁ray	-10.629
▁vague	-10.6292
▁solitary	-10.6299
▁california	-10.6299
▁envy	-10.6299
▁poverty	-10.63
▁upright	-10.6308
▁imaginary	-10.6313
▁confess	-10.6315
▁cuts	-10.6318
▁priest	-10.633
▁rushing	-10.6332
▁stove	-10.6348
▁failure	-10.6349
▁telephone	-10.6351
may	-10.6373
once	-10.6375
▁dripping	-10.6386
▁control	-10.6388
▁violet	-10.6389
▁non	-10.6393
▁gesture	-10.6394
▁scar	-10.6396
▁violent	-10.6397
▁desires	-10.6399
▁searching	-10.6403
▁event	-10.6409
▁chalk	-10.6409
iv	-10.6411
▁orchard	-10.6412
▁cigarettes	-10.6415
▁humble	-10.6426
▁laughs	-10.6427
ized	-10.6434
▁promised	-10.6441
▁swallowed	-10.6442
▁whoever	-10.6444
▁july	-10.6445
▁subtle	-10.6445
without	-10.6449
▁rolls	-10.6455
▁former	-10.6466
had	-10.6479
▁altar	-10.6487
▁hunt	-10.6489
▁host	-10.6492
▁mysterious	-10.6494
▁shaped	-10.6499
▁accept	-10.6506
life	-10.6514
▁thorn	-10.6518
▁crowded	-10.6521
▁alien	-10.6531
▁talked	-10.6531
son	-10.6532
▁depths	-10.6535
▁reads	-10.6541
▁drawing	-10.6543
▁spill	-10.6545
▁haze	-10.6553
▁rainbow	-10.6556
▁bringing	-10.6561
▁offered	-10.6562
▁insects	-10.6571
▁gloves	-10.6576
▁lemon	-10.6582
▁lest	-10.6585
▁task	-10.6587
▁bucket	-10.6587
▁flee	-10.6588
▁social	-10.659
▁rim	-10.6595
high	-10.6602
▁forgetting	-10.6617
▁pools	-10.6618
▁duty	-10.6622
▁danced	-10.6623
▁circling	-10.6625
▁arc	-10.6625
▁reaches	-10.6627
has	-10.6631
▁anguish	-10.6635
▁werent	-10.6636
▁cracks	-10.6637
▁fists	-10.6638
▁print	-10.664
ca	-10.6641
▁solemn	-10.6642
▁weave	-10.6644
▁nervous	-10.6645
▁shattered	-10.6652
▁stock	-10.6652
▁toes	-10.6654
▁sunshine	-10.6654
▁sunny	-10.6658
▁silly	-10.6658
▁sheer	-10.6672
▁blocks	-10.6672
▁allowed	-10.6674
▁someones	-10.6679
▁crawl	-10.6685
▁wires	-10.6689
room	-10.6695
▁carpet	-10.6696
▁cows	-10.6708
▁pet	-10.6708
▁parking	-10.6714
▁ditch	-10.6715
▁witch	-10.6719
▁plot	-10.672
good	-10.6723
▁limb	-10.6731
▁realize	-10.6763
▁ripped	-10.6773
▁mourn	-10.6775
▁smear	-10.6776
▁underground	-10.6776
▁reality	-10.6777
▁backyard	-10.6778
▁sacrifice	-10.6796
▁touches	-10.6799
▁eager	-10.6808
▁silently	-10.6812
▁wives	-10.6812
▁energy	-10.6812
▁endure	-10.6815
▁washing	-10.6819
▁scale	-10.6828
▁palace	-10.6828
▁goddess	-10.6834
▁marry	-10.684
▁price	-10.685
▁sap	-10.6865
▁glimpse	-10.6866
▁nations	-10.6868
▁blessing	-10.6869
▁hammer	-10.6874
▁towns	-10.6882
▁fading	-10.6889
▁strife	-10.6895
▁safety	-10.6895
▁stained	-10.6896
legged	-10.6896
▁matters	-10.6896
▁madness	-10.6899
▁confused	-10.69
▁glare	-10.6905
▁footsteps	-10.6906
▁murmur	-10.6911
▁hip	-10.692
▁certainly	-10.6922
▁willow	-10.6925
▁duck	-10.6935
▁hears	-10.694
▁colored	-10.6945
▁tap	-10.6951
▁prairie	-10.6952
▁covers	-10.6962
▁helpless	-10.6962
ping	-10.6965
▁tangled	-10.6978
▁folds	-10.6989
▁metaphor	-10.6992
▁dug	-10.6993
▁mar	-10.6999
ged	-10.7003
▁kick	-10.7004
foot	-10.7005
▁desperate	-10.7011
▁crimson	-10.7012
▁pushing	-10.7022
▁losing	-10.7031
▁kindness	-10.7038
ol	-10.7039
hand	-10.7051
▁snakes	-10.7053
bed	-10.7056
▁stink	-10.7058
▁aware	-10.706
▁trapped	-10.7064
▁caves	-10.7068
▁accident	-10.7078
▁phrase	-10.7078
▁doorway	-10.7083
▁pop	-10.7086
▁fragrant	-10.7111
▁coral	-10.7114
▁bud	-10.7118
▁decided	-10.7123
▁approach	-10.713
▁scratch	-10.7133
▁port	-10.7137
▁absent	-10.7138
++++++++++++++++	-10.7143
▁follows	-10.7143
▁globe	-10.7144
▁monster	-10.7145
▁potatoes	-10.7145
▁guest	-10.7146
▁throats	-10.7146
▁tips	-10.7155
▁bored	-10.7168
▁dish	-10.7168
ck	-10.7171
▁corpse	-10.7172
could	-10.7172
▁unable	-10.7173
never	-10.7173
▁suck	-10.7187
▁hurts	-10.719
▁grip	-10.7207
▁habit	-10.7209
▁upper	-10.7212
▁boxes	-10.7215
▁yield	-10.7216
▁strip	-10.7218
ny	-10.7222
▁meadows	-10.7245
▁kissing	-10.7245
▁angle	-10.7247
▁fools	-10.7263
▁ragged	-10.7263
▁reasons	-10.7266
▁stole	-10.7267
▁fellow	-10.7267
▁humming	-10.7269
▁brittle	-10.727
▁granite	-10.727
▁invented	-10.7283
▁bench	-10.7288
shall	-10.7304
▁rent	-10.7305
▁le	-10.7308
▁bleed	-10.7316
▁bending	-10.7319
▁stuffed	-10.732
▁limp	-10.7324
▁destroy	-10.7338
▁borne	-10.7349
▁purse	-10.7351
▁bury	-10.7356
▁grasp	-10.7361
▁belong	-10.7364
....	-10.7371
▁stern	-10.7378
▁slides	-10.7379
▁judge	-10.7382
▁ringing	-10.7405
▁tremble	-10.7406
▁co	-10.7408
▁created	-10.7412
▁wi	-10.7416
▁strain	-10.743
▁snap	-10.743
ities	-10.7433
▁slice	-10.7436
▁genius	-10.744
▁sinking	-10.7442
▁perfume	-10.7446
▁leaned	-10.7447
▁curl	-10.7451
▁powder	-10.7454
ward	-10.7456
ine	-10.7461
▁bigger	-10.7468
▁chosen	-10.747
▁prince	-10.747
▁dresses	-10.7472
▁range	-10.7475
▁alley	-10.7486
▁cliffs	-10.7488
▁exchange	-10.7491
dark	-10.7498
▁lions	-10.7499
▁wa	-10.7503
▁polish	-10.7511
▁swallows	-10.7514
▁plum	-10.7522
▁interior	-10.7527
▁melancholy	-10.7528
▁northern	-10.7528
▁drifts	-10.7528
▁undone	-10.7529
▁misery	-10.7531
▁trumpet	-10.7531
▁reveal	-10.7533
▁rusty	-10.7538
▁everybody	-10.754
▁sucked	-10.7546
▁surf	-10.7546
▁fluttering	-10.7546
ning	-10.7552
▁withered	-10.7556
ble	-10.7562
▁lamps	-10.7562
ut	-10.7565
▁coin	-10.7567
▁dollars	-10.7572
▁bowed	-10.7575
▁masters	-10.7582
▁whistle	-10.7584
▁inter	-10.759
▁savage	-10.7591
▁saturday	-10.7593
▁infant	-10.7597
▁stepped	-10.7599
▁scars	-10.7602
▁charge	-10.7603
▁islands	-10.7604
▁bind	-10.7608
▁games	-10.7613
▁crisp	-10.7624
▁mention	-10.7626
▁mistress	-10.7627
▁j	-10.7628
▁ending	-10.7629
▁grapes	-10.7638
▁button	-10.7641
▁seconds	-10.7648
▁backward	-10.7659
▁evidence	-10.7659
▁jail	-10.7662
▁twas	-10.7662
▁avoid	-10.7671
▁buds	-10.7673
▁rule	-10.7675
▁remembers	-10.7682
▁remained	-10.7698
fi	-10.7706
▁packed	-10.7713
board	-10.7714
▁jaw	-10.7715
▁mens	-10.7716
▁shores	-10.7718
▁mile	-10.7719
▁lime	-10.7721
▁depth	-10.7728
▁ho	-10.7738
▁coins	-10.7744
▁temples	-10.775
▁exact	-10.7757
▁sullen	-10.7759
▁pointing	-10.7764
▁phantom	-10.777
▁kinds	-10.777
▁starting	-10.7771
▁hides	-10.7777
▁saints	-10.7791
▁shrill	-10.7791
▁l	-10.7797
▁neer	-10.7797
▁quit	-10.7801
qu	-10.7803
▁hoping	-10.7804
▁sack	-10.7805
▁version	-10.7808
▁socks	-10.7823
▁shouting	-10.7823
▁deeds	-10.7828
▁shelf	-10.7836
far	-10.7838
▁meal	-10.7839
▁flashing	-10.784
▁rags	-10.7846
▁describe	-10.7846
▁sails	-10.7849
▁winding	-10.7854
▁account	-10.7857
▁cheese	-10.7858
▁butterfly	-10.7859
”—	-10.786
ul	-10.7862
▁toss	-10.7872
▁swan	-10.7887
▁obscure	-10.789
▁shone	-10.7894
▁settle	-10.7899
▁candy	-10.7901
▁argument	-10.7906
▁slope	-10.7906
▁peaceful	-10.7906
ner	-10.791
▁honest	-10.7915
▁transparent	-10.7922
▁chicago	-10.7928
▁roofs	-10.7928
▁television	-10.7931
▁science	-10.7938
▁careless	-10.7942
▁glitter	-10.7942
looking	-10.7949
▁melting	-10.7952
▁gazing	-10.7961
▁lots	-10.7962
▁blaze	-10.7962
▁stoop	-10.7962
▁horns	-10.7966
between	-10.7966
cut	-10.797
▁blooms	-10.7977
▁flutter	-10.798
deep	-10.7981
▁husbands	-10.7985
▁claws	-10.799
▁value	-10.8007
▁shallow	-10.8012
▁photographs	-10.8015
▁beg	-10.8023
▁roam	-10.8028
▁du	-10.8031
▁freeze	-10.8043
▁bodys	-10.8046
▁twin	-10.8049
▁rank	-10.8058
▁chaos	-10.8065
▁subway	-10.8066
▁grateful	-10.8068
▁joined	-10.8072
▁sunk	-10.808
▁fury	-10.8081
▁ancestors	-10.8081
▁faster	-10.8083
▁nay	-10.8088
▁wandered	-10.8095
▁powers	-10.8099
▁substance	-10.8099
▁tools	-10.8103
▁knot	-10.8104
▁stays	-10.8106
▁skins	-10.811
▁den	-10.811
cy	-10.811
▁reeds	-10.8111
▁throwing	-10.8113
▁stalks	-10.8113
▁brains	-10.8118
▁disaster	-10.8137
▁myth	-10.8138
▁coyote	-10.8138
▁eventually	-10.814
▁scales	-10.8141
▁fabric	-10.8147
▁attic	-10.8148
▁locks	-10.8148
▁foe	-10.8148
▁da	-10.8158
ily	-10.8163
▁sore	-10.8165
▁damn	-10.8165
▁tough	-10.8168
▁melody	-10.8168
▁sideways	-10.8169
▁sentence	-10.8169
thus	-10.8169
▁keen	-10.8173
▁team	-10.8173
▁aunt	-10.8174
▁unlike	-10.8186
▁meets	-10.819
▁scatter	-10.8197
nd	-10.82
▁mis	-10.8203
▁royal	-10.8204
▁pressure	-10.8204
▁plenty	-10.8204
▁earlier	-10.8204
▁france	-10.8205
▁dishes	-10.8208
▁tucked	-10.8212
tree	-10.8215
▁club	-10.8216
▁vein	-10.8224
▁settled	-10.8245
▁canvas	-10.8245
▁hearth	-10.825
▁disease	-10.8252
▁students	-10.8253
▁nerves	-10.8258
▁woven	-10.8258
▁valleys	-10.8259
▁growth	-10.826
▁fairy	-10.8261
▁household	-10.8263
▁weed	-10.8264
▁german	-10.8271
▁design	-10.8272
▁vi	-10.8274
▁threshold	-10.8276
▁remote	-10.8279
▁whod	-10.8279
▁pit	-10.8281
▁create	-10.8289
▁tense	-10.8292
▁goat	-10.8294
▁muscles	-10.8297
▁doll	-10.8298
▁proof	-10.8314
▁newspaper	-10.8325
ys	-10.8332
▁crust	-10.8333
▁showing	-10.8334
▁po	-10.8335
▁shooting	-10.8341
▁chose	-10.8342
youre	-10.8342
▁cancer	-10.8344
▁oclock	-10.8345
▁guilty	-10.8351
▁mint	-10.8351
▁december	-10.8351
▁group	-10.8354
▁instance	-10.8355
▁blink	-10.8366
▁expected	-10.8372
▁cart	-10.8373
▁hello	-10.8375
▁flows	-10.8378
▁cane	-10.8384
▁released	-10.8389
▁deadly	-10.8391
▁bursting	-10.8392
iness	-10.8398
▁lined	-10.8402
▁tire	-10.8403
▁spark	-10.8406
▁stepping	-10.8407
▁zero	-10.8411
▁curls	-10.8415
▁leading	-10.8417
▁extra	-10.8419
▁sixty	-10.8421
▁reflection	-10.8423
▁load	-10.8424
▁shifting	-10.843
▁darkened	-10.8434
ad	-10.8436
▁breathed	-10.8446
pe	-10.8449
▁slender	-10.8451
▁piles	-10.8453
▁hats	-10.8455
▁vanish	-10.8457
▁2.	-10.8457
▁hue	-10.8459
▁shirts	-10.8463
▁sweetly	-10.8464
▁suits	-10.8472
three	-10.8475
▁surprised	-10.8478
▁indians	-10.8484
▁states	-10.8485
▁aim	-10.8486
▁laundry	-10.8487
▁necessary	-10.8487
▁central	-10.8487
▁factory	-10.8489
▁upstairs	-10.8489
▁boot	-10.8496
▁claw	-10.8503
▁removed	-10.8503
▁hushed	-10.8509
top	-10.8513
▁maps	-10.8527
▁descend	-10.8529
▁drums	-10.8534
▁haunted	-10.8539
▁eagle	-10.854
▁sparrows	-10.8545
▁prime	-10.8557
▁birch	-10.8561
▁stirred	-10.8565
▁error	-10.8567
▁continues	-10.8571
rd	-10.8581
wind	-10.8586
▁swells	-10.859
▁closes	-10.8591
▁tables	-10.8591
▁crash	-10.8593
▁cheer	-10.8604
▁instrument	-10.8609
▁pane	-10.861
▁risen	-10.861
j	-10.8614
▁arrives	-10.8624
▁strikes	-10.863
▁italian	-10.8632
▁uncertain	-10.8632
▁fiery	-10.8632
▁cement	-10.8633
set	-10.8633
▁hundreds	-10.8649
▁creeping	-10.8649
▁japanese	-10.8649
▁kin	-10.8652
▁stronger	-10.8653
▁brightness	-10.8653
▁parade	-10.8653
▁writes	-10.8655
ir	-10.8659
▁ankles	-10.868
▁pasture	-10.8681
▁halls	-10.8682
▁feeding	-10.8686
▁dragging	-10.8688
▁likely	-10.869
▁van	-10.8691
▁necks	-10.8691
▁sub	-10.8691
▁whip	-10.8692
end	-10.8701
▁spiders	-10.8702
▁sins	-10.8702
▁crush	-10.8702
▁decades	-10.8704
▁seeking	-10.8704
▁machines	-10.8705
▁george	-10.871
▁ritual	-10.8712
▁sum	-10.8714
▁tiger	-10.8714
▁medicine	-10.8715
▁wrap	-10.8717
▁warning	-10.8719
▁november	-10.8727
away	-10.8728
▁gap	-10.8732
▁lane	-10.8735
▁intimate	-10.8739
▁cradle	-10.8745
▁consciousness	-10.8751
▁judgment	-10.8758
▁rub	-10.8761
ance	-10.877
▁scarlet	-10.8776
▁minor	-10.878
▁pollen	-10.878
▁bushes	-10.8786
▁prepared	-10.879
▁darkening	-10.8791
▁refused	-10.88
▁curved	-10.8805
▁winged	-10.8807
▁brood	-10.8808
▁fences	-10.8811
▁milky	-10.8814
▁smallest	-10.8815
▁grin	-10.8817
theres	-10.8818
▁guilt	-10.882
▁absolute	-10.8822
▁fifteen	-10.8826
▁tore	-10.8832
▁chief	-10.8834
▁grant	-10.8836
▁blackness	-10.884
▁plus	-10.8845
▁pains	-10.8845
▁respect	-10.8845
▁kneel	-10.8845
▁cling	-10.885
▁reply	-10.8854
six	-10.886
▁random	-10.886
▁dozen	-10.8865
▁powerful	-10.8869
▁farmer	-10.8872
▁remove	-10.8885
▁route	-10.8885
ber	-10.8888
▁blush	-10.8888
▁sphere	-10.8914
▁castle	-10.8916
▁brand	-10.892
che	-10.892
▁swam	-10.8921
▁childrens	-10.8922
haired	-10.8923
▁logic	-10.8927
▁vacant	-10.8929
▁southern	-10.8929
▁massive	-10.8931
▁sleek	-10.8931
▁brook	-10.8937
▁hoped	-10.894
▁stacked	-10.8941
▁college	-10.8947
▁government	-10.8947
▁discovered	-10.8951
upon	-10.8953
▁whence	-10.896
▁facing	-10.8964
▁anti	-10.8978
every	-10.898
▁doom	-10.8987
▁shared	-10.8989
▁mo	-10.8995
▁hover	-10.9
▁berries	-10.9005
▁shepherd	-10.9007
▁agony	-10.9011
▁rays	-10.9011
▁statue	-10.9015
field	-10.9029
▁rang	-10.9036
▁darker	-10.9038
▁bubble	-10.9039
fish	-10.905
▁reader	-10.9058
▁entrance	-10.9063
▁pro	-10.9063
▁barefoot	-10.9063
▁piss	-10.9071
▁atlantic	-10.9073
▁europe	-10.9078
li	-10.9078
▁trucks	-10.9079
▁fishing	-10.9079
▁ecstasy	-10.908
▁repose	-10.908
▁spaces	-10.908
▁focus	-10.9081
▁rustling	-10.9081
▁rocking	-10.9081
▁species	-10.9082
▁position	-10.9082
▁toast	-10.9089
▁doves	-10.9091
▁score	-10.9092
▁skip	-10.9093
▁pound	-10.9094
▁type	-10.9097
▁progress	-10.9098
▁melted	-10.9104
bye	-10.9113
▁marching	-10.9127
▁elephant	-10.913
▁sleeve	-10.9139
▁happening	-10.9142
▁jaws	-10.9143
▁counted	-10.9146
▁rattle	-10.9146
shirt	-10.9154
io	-10.9161
▁radiant	-10.9162
give	-10.9164
▁spreading	-10.9164
▁suicide	-10.9167
▁bible	-10.9167
gone	-10.9168
ists	-10.9168
▁deliver	-10.9169
▁stair	-10.9172
lin	-10.9172
▁bough	-10.918
▁boom	-10.9187
▁pepper	-10.9191
▁splash	-10.9193
four	-10.9195
▁drives	-10.9197
▁pleased	-10.9202
▁bullets	-10.9205
▁sole	-10.9206
said	-10.9206
▁folk	-10.9211
▁mirth	-10.9211
▁shove	-10.9214
glass	-10.9217
▁linen	-10.9217
▁cab	-10.9218
▁fucking	-10.9226
▁cord	-10.9229
▁oblivion	-10.9234
▁delicious	-10.9234
▁mill	-10.9238
▁rod	-10.924
▁yo	-10.9241
▁slim	-10.9243
▁seal	-10.9245
▁dock	-10.9246
▁nearby	-10.925
▁pear	-10.925
▁perfection	-10.925
▁flickering	-10.9251
▁se	-10.9252
▁handful	-10.9254
▁ben	-10.9256
▁earthly	-10.9257
▁grape	-10.9259
▁scared	-10.9263
‘	-10.9265
ge	-10.9269
fire	-10.9283
▁comb	-10.9284
ions	-10.9287
▁political	-10.929
▁luminous	-10.9293
▁bo	-10.9293
▁tar	-10.9294
▁abstract	-10.9298
▁jet	-10.9307
▁cook	-10.9307
▁whilst	-10.9311
▁praying	-10.9316
*	-10.9319
▁element	-10.9321
▁effort	-10.9322
▁ideas	-10.9322
▁piled	-10.9323
▁tissue	-10.9324
▁supper	-10.9324
▁olive	-10.9324
▁skeleton	-10.9325
▁james	-10.9328
▁modern	-10.9334
▁pours	-10.9345
▁torch	-10.935
▁movies	-10.9353
▁tales	-10.9354
waiting	-10.9355
▁pearls	-10.9358
▁chimney	-10.9368
▁wad	-10.9368
▁stubborn	-10.9381
▁mate	-10.9382
▁actual	-10.9384
brown	-10.9384
▁proper	-10.9385
▁atmosphere	-10.939
▁struggling	-10.939
▁garbage	-10.939
▁rilke	-10.939
▁rag	-10.9392
▁shopping	-10.9392
▁victory	-10.9393
▁coffin	-10.9394
▁national	-10.9394
▁neat	-10.9395
▁civil	-10.9397
▁fake	-10.9398
▁startled	-10.9399
▁perched	-10.9404
▁attack	-10.9405
▁bled	-10.9406
▁salvation	-10.9409
▁upside	-10.9418
▁knocked	-10.9418
▁oaks	-10.9421
▁highest	-10.9421
▁drowning	-10.9426
▁measured	-10.9428
▁union	-10.9431
▁newly	-10.9439
▁aloud	-10.9441
▁harsh	-10.9442
▁robes	-10.9444
▁parting	-10.9446
▁interest	-10.9453
▁grove	-10.9453
▁generations	-10.9453
▁agree	-10.9459
▁resting	-10.946
▁tides	-10.9467
▁signal	-10.9467
▁exile	-10.9468
▁loop	-10.947
▁guests	-10.9472
▁backwards	-10.9473
▁picking	-10.9477
▁theater	-10.9484
▁grease	-10.9485
ng	-10.9496
morrow	-10.9497
va	-10.9498
▁captain	-10.9508
▁tick	-10.9511
▁leaps	-10.9514
▁glistening	-10.9517
▁anothers	-10.9523
▁murder	-10.9524
▁beef	-10.9525
▁damned	-10.9538
tre	-10.9545
▁families	-10.9549
▁pacific	-10.9549
▁blazing	-10.9549
▁friday	-10.9549
▁messages	-10.9549
▁torture	-10.955
▁grandmothers	-10.9556
▁usually	-10.956
▁lid	-10.9565
▁january	-10.9568
▁elbow	-10.957
▁pump	-10.9577
sometimes	-10.9578
▁paused	-10.9581
▁pressing	-10.9592
▁woo	-10.9598
▁manner	-10.9599
▁invent	-10.96
▁swung	-10.9601
▁dissolve	-10.9601
▁destiny	-10.9601
▁muddy	-10.9601
▁scrub	-10.9602
▁howling	-10.9604
▁sands	-10.9604
▁fired	-10.9609
▁farmers	-10.9623
▁leans	-10.9623
▁knots	-10.9626
▁barren	-10.9634
▁flick	-10.9634
▁traveling	-10.9643
▁guitar	-10.9644
▁friendly	-10.9652
▁wonders	-10.9654
▁drawer	-10.9656
▁bricks	-10.9662
▁swelling	-10.9666
eer	-10.9668
▁wholly	-10.9671
▁troubled	-10.9673
▁strung	-10.9678
▁slant	-10.9678
▁sage	-10.9681
▁grieve	-10.9682
▁address	-10.969
▁abandon	-10.9693
king	-10.9694
▁okay	-10.9702
▁sport	-10.9703
make	-10.9703
▁shiny	-10.9704
▁normal	-10.9706
▁series	-10.971
▁starry	-10.9714
▁sunrise	-10.972
▁reflected	-10.9721
▁instinct	-10.9729
▁lilac	-10.9731
▁shown	-10.9735
▁crawling	-10.9737
▁served	-10.9739
▁passions	-10.9741
▁syllables	-10.9742
ors	-10.9744
▁jumped	-10.9744
▁hive	-10.9745
open	-10.9748
▁haste	-10.9749
▁trailing	-10.9749
▁generation	-10.9756
▁balm	-10.9756
ging	-10.9756
▁outer	-10.9764
▁throws	-10.9768
▁bends	-10.9773
maybe	-10.9774
▁switch	-10.9777
▁groves	-10.9778
▁lick	-10.9784
▁fork	-10.9786
▁delay	-10.9792
▁strand	-10.9795
▁staff	-10.9797
▁emptied	-10.9797
▁lazy	-10.9798
▁amazed	-10.98
▁model	-10.9802
▁sparrow	-10.9802
▁paw	-10.9803
▁besides	-10.9809
▁shiver	-10.9812
▁glue	-10.9813
▁moths	-10.9819
▁catching	-10.9821
▁monument	-10.9827
pa	-10.983
▁snatch	-10.9831
▁yards	-10.9832
▁understanding	-10.9832
▁pinned	-10.9832
▁click	-10.984
▁blooming	-10.9842
▁talks	-10.9843
ding	-10.9845
▁dancers	-10.9846
▁planets	-10.9848
▁pie	-10.9855
▁hated	-10.9866
▁collar	-10.987
▁broom	-10.987
▁hairs	-10.9871
▁debris	-10.9874
▁rosy	-10.9875
▁mexico	-10.9876
▁serene	-10.988
▁tenderness	-10.9882
▁scythe	-10.9885
▁hedge	-10.9885
▁sank	-10.9885
▁rarely	-10.989
▁mi	-10.9893
▁wrists	-10.9893
▁dances	-10.9897
▁hunting	-10.9897
▁realized	-10.99
▁seventeen	-10.99
▁eden	-10.9902
▁tape	-10.9907
▁leaping	-10.9913
▁schools	-10.9918
▁passionate	-10.9921
▁contain	-10.9922
stone	-10.9925
▁nineteen	-10.9926
▁everlasting	-10.9927
▁cousins	-10.9931
▁cough	-10.9938
▁swarm	-10.9944
▁vale	-10.9944
den	-10.9945
▁covering	-10.9951
▁dolls	-10.9955
▁craft	-10.9958
ka	-10.9965
▁furnace	-10.9972
▁swamp	-10.9974
▁promises	-10.9975
▁original	-10.9977
▁nerve	-10.9977
▁artist	-10.998
▁jars	-10.9985
▁admire	-10.9992
▁punch	-11.0003
▁reverse	-11.001
▁bridges	-11.0011
▁screams	-11.0014
▁ok	-11.0015
▁slid	-11.0024
▁rib	-11.0029
▁balcony	-11.0041
▁cemetery	-11.0041
▁wrath	-11.0041
▁generous	-11.0041
▁rubble	-11.0041
▁marrow	-11.0041
▁antique	-11.0041
▁dangling	-11.0041
▁underwear	-11.0042
om	-11.0042
▁slipping	-11.0043
▁ya	-11.0053
▁shouldnt	-11.0054
▁jane	-11.0057
▁flush	-11.0063
▁kicked	-11.0064
▁fountains	-11.0064
▁useful	-11.0065
▁spilled	-11.0065
▁received	-11.0065
▁crosses	-11.0066
▁sober	-11.0067
▁creep	-11.0075
▁fa	-11.0077
▁swaying	-11.0081
▁seats	-11.0082
past	-11.0087
▁stunned	-11.0095
▁soaked	-11.01
▁vessel	-11.01
▁inches	-11.01
birds	-11.011
▁drain	-11.011
▁afternoons	-11.0117
▁tires	-11.0118
▁lute	-11.0118
▁arise	-11.0119
▁ropes	-11.012
▁favor	-11.0126
▁title	-11.0129
▁reign	-11.0133
▁imagining	-11.0134
▁violets	-11.0135
▁thorns	-11.0144
▁rug	-11.015
▁arrows	-11.0151
▁compass	-11.0154
late	-11.0156
▁anchor	-11.0157
▁hasnt	-11.016
▁wink	-11.0165
▁selves	-11.017
▁wretched	-11.0171
since	-11.0176
▁haunt	-11.0177
▁virtues	-11.0178
again	-11.018
▁shroud	-11.0183
▁alarm	-11.0188
▁10	-11.0198
▁deny	-11.0204
▁fleet	-11.0204
▁latin	-11.0212
▁bitch	-11.0212
▁airport	-11.0214
ey	-11.0214
▁heal	-11.0223
▁chickens	-11.0227
ened	-11.0227
▁yr	-11.023
▁shivering	-11.0231
▁dip	-11.0232
▁tend	-11.0233
▁sticky	-11.0233
▁gut	-11.0234
▁approaching	-11.0237
▁report	-11.024
▁jeans	-11.024
▁roaring	-11.0251
▁sweeping	-11.0252
▁gulls	-11.0253
▁pretending	-11.0254
▁obvious	-11.0259
▁clocks	-11.0259
▁tom	-11.0259
▁irish	-11.0262
▁gum	-11.0264
▁numb	-11.0266
▁drone	-11.0267
▁scenes	-11.0267
▁sleeves	-11.0275
▁shield	-11.0275
▁elements	-11.0281
▁haul	-11.0284
▁harp	-11.029
lined	-11.0295
▁freely	-11.0296
▁fuel	-11.0298
▁wreck	-11.0298
▁hymn	-11.0299
▁religion	-11.0302
▁enters	-11.0303
▁rotten	-11.0303
▁novel	-11.0306
▁mould	-11.0308
▁gestures	-11.0309
▁toys	-11.0309
bone	-11.0311
▁rifle	-11.0317
▁nameless	-11.032
▁eats	-11.0322
▁helped	-11.0327
▁snowy	-11.0331
nine	-11.0334
▁skirts	-11.0335
▁planes	-11.0342
▁believing	-11.0343
ye	-11.0345
war	-11.0355
ship	-11.0358
vi	-11.0359
▁stares	-11.0366
▁sill	-11.0368
▁garage	-11.0371
▁wondrous	-11.0383
▁whistling	-11.0383
▁cottage	-11.0383
▁intelligence	-11.0384
▁brink	-11.0384
▁fluid	-11.0385
lie	-11.0385
▁according	-11.0385
▁hood	-11.0386
▁greed	-11.0387
▁bellies	-11.039
▁chime	-11.0402
▁robe	-11.0403
▁hovering	-11.0405
▁queer	-11.0406
▁suspended	-11.0408
blown	-11.0408
▁anne	-11.0409
▁caf	-11.0409
▁armor	-11.0412
▁september	-11.0412
▁petal	-11.0416
com	-11.0423
▁attend	-11.0428
▁lad	-11.0428
▁humans	-11.0429
▁sirens	-11.0429
kin	-11.043
▁awkward	-11.043
▁fearful	-11.0437
▁acid	-11.044
▁pills	-11.0444
▁spreads	-11.0447
▁layers	-11.0458
▁caress	-11.046
▁lakes	-11.046
▁sip	-11.046
▁jealous	-11.0468
▁super	-11.0468
▁depart	-11.0469
▁nests	-11.0473
▁decide	-11.0475
▁studied	-11.0476
▁cardboard	-11.0476
▁fragments	-11.0485
▁workers	-11.0487
▁possess	-11.049
▁kindly	-11.0491
▁curb	-11.0491
▁toilet	-11.0492
▁empire	-11.0492
▁slumber	-11.0492
▁illusion	-11.0492
▁si	-11.0494
▁yon	-11.0496
▁canyon	-11.0496
▁stems	-11.0503
▁mock	-11.0503
mi	-11.0507
▁stores	-11.0515
▁yea	-11.052
▁lesson	-11.0526
▁culture	-11.0529
▁rights	-11.053
▁exists	-11.053
▁guts	-11.0534
▁sift	-11.054
▁frank	-11.0544
▁robert	-11.0544
▁swords	-11.0546
hes	-11.0548
▁sixteen	-11.0556
air	-11.0557
▁immense	-11.0558
▁intricate	-11.0558
▁enemies	-11.0558
▁department	-11.0559
▁shaken	-11.0561
half	-11.0564
▁fingertips	-11.0577
▁par	-11.0581
▁clinging	-11.0581
▁handsome	-11.0586
▁added	-11.0592
▁sends	-11.0593
▁afar	-11.0603
▁disappearing	-11.0605
▁blonde	-11.0611
▁code	-11.0614
▁glove	-11.0615
▁nevertheless	-11.0616
▁seated	-11.0625
▁satin	-11.0626
ron	-11.0633
▁statues	-11.0634
▁sweating	-11.0637
▁sparks	-11.0639
▁toy	-11.0645
▁script	-11.0647
around	-11.0651
ave	-11.0652
▁ashamed	-11.0653
▁eleven	-11.0654
▁buttons	-11.0661
▁dwelling	-11.0662
▁deeply	-11.0662
▁complain	-11.0664
▁occasion	-11.0668
▁reminds	-11.0669
▁alphabet	-11.0669
▁tube	-11.0669
▁cathedral	-11.067
▁landing	-11.0671
▁booth	-11.0672
▁designed	-11.0674
▁flare	-11.0684
▁cape	-11.0686
▁cash	-11.0687
▁actions	-11.0687
▁boards	-11.0689
▁patterns	-11.0689
▁jungle	-11.0692
▁shouts	-11.0695
▁coats	-11.0696
▁stirs	-11.0698
ti	-11.0698
au	-11.0703
lessness	-11.0705
▁sheen	-11.0716
▁axe	-11.072
▁permanent	-11.073
get	-11.0731
▁treat	-11.0734
▁jim	-11.0734
▁asphalt	-11.0737
▁desolate	-11.0737
▁ivory	-11.0737
▁abyss	-11.0738
mother	-11.0739
▁sealed	-11.0739
di	-11.0744
▁elm	-11.0746
▁ta	-11.075
ms	-11.0754
▁threads	-11.0754
ious	-11.0755
▁log	-11.0766
▁murmuring	-11.0766
▁weaving	-11.0767
▁columns	-11.0774
▁dive	-11.0788
▁arts	-11.0789
▁chew	-11.0789
ere	-11.0789
▁terms	-11.079
▁trim	-11.0804
▁erect	-11.081
▁directions	-11.0811
▁wedge	-11.0812
▁bubbles	-11.0815
▁display	-11.0815
something	-11.0819
▁brushed	-11.082
▁vanishing	-11.0821
▁mount	-11.0824
▁precise	-11.0826
▁visions	-11.0826
▁flaming	-11.0828
▁fully	-11.0829
▁plough	-11.083
▁corpses	-11.0831
▁ribbon	-11.0835
seven	-11.0835
▁monkey	-11.0844
▁boss	-11.0848
▁monday	-11.0851
▁clover	-11.0851
▁student	-11.0854
▁rides	-11.0858
▁bombs	-11.0861
▁excuse	-11.0865
▁fro	-11.0866
▁russian	-11.0866
▁rests	-11.0872
▁blurred	-11.0873
▁grade	-11.0878
▁orders	-11.0879
iest	-11.0885
,“	-11.0886
▁buck	-11.0891
▁mystic	-11.0891
▁smelled	-11.0895
▁claims	-11.0897
ran	-11.0898
▁flicker	-11.0904
▁crickets	-11.0905
▁resist	-11.091
▁pier	-11.0911
▁modest	-11.0911
▁peoples	-11.0912
▁advice	-11.0919
▁naught	-11.0919
▁eastern	-11.0921
▁weird	-11.0922
▁tug	-11.0922
▁chant	-11.0923
▁stark	-11.0932
▁quivering	-11.0936
▁blinking	-11.0944
▁twisting	-11.0951
▁someday	-11.0952
▁selling	-11.0957
▁cops	-11.0957
▁shaft	-11.0959
bird	-11.096
▁wail	-11.0973
▁twigs	-11.0975
hot	-11.0975
▁3.	-11.0977
full	-11.0978
▁pill	-11.0979
▁vows	-11.0979
▁caused	-11.0987
mans	-11.0988
▁climbs	-11.0992
car	-11.0995
▁swings	-11.1003
▁folding	-11.1005
▁streaming	-11.1015
▁ducks	-11.1016
law	-11.1016
▁celebrate	-11.102
▁poised	-11.1022
▁shrine	-11.1038
▁rail	-11.1038
▁maiden	-11.1038
▁drinks	-11.1039
▁choir	-11.1039
▁listens	-11.1044
▁yearning	-11.1046
▁guards	-11.105
▁beaten	-11.1055
▁whiskey	-11.1056
▁digging	-11.1058
▁spoil	-11.1067
▁barrel	-11.108
▁plucked	-11.1084
▁pebbles	-11.1091
box	-11.1092
rose	-11.1093
ten	-11.1095
▁drunken	-11.1098
▁indifferent	-11.1101
▁moist	-11.1101
▁falcon	-11.1103
▁bamboo	-11.1104
▁jazz	-11.1104
▁hooves	-11.1104
▁evry	-11.1104
▁geese	-11.1104
▁radiance	-11.1104
▁lavender	-11.1104
▁yonder	-11.1104
▁blest	-11.1106
▁divided	-11.111
▁midst	-11.1111
▁underwater	-11.1115
▁aloft	-11.1119
▁pursue	-11.1122
▁structure	-11.1127
ru	-11.1127
▁slack	-11.1131
ps	-11.1133
hu	-11.1134
▁parted	-11.1135
▁suffered	-11.1138
▁wipe	-11.1138
▁strewn	-11.1148
▁sailed	-11.1149
▁boil	-11.1153
▁floods	-11.1156
▁shrink	-11.1157
▁fruits	-11.1163
tes	-11.1163
▁process	-11.1171
▁gathers	-11.1173
po	-11.1173
▁paws	-11.1178
▁ne	-11.1182
▁collect	-11.1183
▁clasp	-11.1183
▁bands	-11.1186
handed	-11.1186
▁tails	-11.1187
▁frown	-11.1189
▁linger	-11.1192
▁fatal	-11.1197
▁9	-11.1199
▁di	-11.1202
▁clutch	-11.1203
▁surrender	-11.1207
▁lush	-11.1208
▁picks	-11.1215
▁harder	-11.1216
▁rip	-11.1222
▁pigs	-11.1222
▁crew	-11.1226
▁friendship	-11.1228
▁visual	-11.1229
▁cooling	-11.1242
▁hem	-11.1243
▁gang	-11.1247
▁colour	-11.125
place	-11.1251
▁sickness	-11.1254
▁shovel	-11.1257
▁spilling	-11.1258
▁ann	-11.1272
ph	-11.1272
▁dun	-11.1274
▁squeeze	-11.1277
▁awhile	-11.1283
▁cunning	-11.1285
▁squat	-11.1287
▁repair	-11.1289
▁cousin	-11.1289
▁arranged	-11.1289
▁eighteen	-11.1291
▁venus	-11.1293
▁taut	-11.1293
▁baseball	-11.1293
▁fireflies	-11.1294
▁defend	-11.1294
▁skinny	-11.1296
▁begging	-11.1297
▁heroes	-11.1299
▁neon	-11.1305
▁breathless	-11.1309
▁helen	-11.1311
▁briefly	-11.1311
▁delivered	-11.1313
▁healing	-11.1315
▁sinks	-11.1316
▁feeds	-11.132
▁windy	-11.1328
▁crowds	-11.1331
▁ox	-11.1331
▁screamed	-11.1334
▁lung	-11.134
▁floated	-11.1341
▁tan	-11.1349
▁cloudy	-11.1351
▁thief	-11.1354
▁bats	-11.1358
▁pots	-11.1358
▁barking	-11.1358
▁character	-11.1362
ja	-11.1362
▁dreamt	-11.1363
▁thrill	-11.1364
▁lark	-11.1365
▁elephants	-11.1374
▁lately	-11.138
▁tearing	-11.1383
▁pipes	-11.1384
▁balloon	-11.1384
▁vice	-11.1385
▁tasted	-11.139
▁negro	-11.1391
▁believes	-11.1393
▁stumble	-11.1403
▁sorrows	-11.1403
▁tops	-11.1406
▁hut	-11.1409
whats	-11.1417
▁decision	-11.1418
▁blunt	-11.1418
▁mice	-11.142
▁affection	-11.142
eye	-11.1422
▁unit	-11.1428
▁moral	-11.1436
ned	-11.145
▁sleepy	-11.145
boy	-11.1452
▁nurses	-11.1457
▁companion	-11.1462
▁flourish	-11.1464
▁stitch	-11.1465
▁gale	-11.1467
▁tunes	-11.1471
ls	-11.1477
▁gulf	-11.1479
▁debt	-11.148
▁absurd	-11.1485
▁celestial	-11.1485
▁liquor	-11.1485
▁mississippi	-11.1485
▁dizzy	-11.1485
▁planned	-11.1485
▁replied	-11.1485
▁santa	-11.1486
▁millions	-11.1486
▁butterflies	-11.1487
▁drying	-11.1488
first	-11.1491
▁raggedy	-11.1495
▁cabin	-11.1496
▁parties	-11.1496
▁borrowed	-11.1497
▁obey	-11.15
▁meek	-11.1503
▁lullaby	-11.1508
▁sprung	-11.1508
theyre	-11.1509
▁hopeless	-11.151
▁destroyed	-11.1511
▁scrape	-11.1511
▁perch	-11.1512
▁panic	-11.1517
▁latest	-11.152
▁serpent	-11.1522
▁cellar	-11.1523
▁sucking	-11.1523
bright	-11.1526
▁aching	-11.1528
▁ghostly	-11.1531
▁lee	-11.1531
▁reed	-11.1534
▁clearing	-11.1536
▁whales	-11.154
▁prisoners	-11.1543
▁direct	-11.1544
▁channel	-11.1544
▁fore	-11.1551
▁cursed	-11.1554
▁ribbons	-11.1554
▁pierce	-11.1555
▁turtle	-11.1564
▁howl	-11.1565
▁crest	-11.1568
▁belongs	-11.1584
▁bolt	-11.1585
▁torment	-11.1588
▁murmurs	-11.159
▁driver	-11.159
▁worthy	-11.1591
sized	-11.1597
being	-11.1598
▁exit	-11.16
▁bruised	-11.1601
▁trap	-11.1603
▁railroad	-11.1612
▁vow	-11.1614
▁expression	-11.1614
▁christian	-11.1615
▁hers	-11.1616
▁hallway	-11.1617
▁continued	-11.1618
▁peter	-11.1619
▁towel	-11.162
▁currents	-11.1623
▁breathes	-11.1626
▁formed	-11.1631
▁stretching	-11.1632
▁ankle	-11.1633
▁risk	-11.1634
▁alike	-11.1634
▁bean	-11.1636
▁restaurant	-11.1637
▁rescue	-11.165
ground	-11.1652
▁manage	-11.1657
▁hire	-11.1658
▁dollar	-11.166
▁rear	-11.1661
▁rue	-11.1672
▁syrup	-11.1673
▁nigh	-11.1676
▁magazine	-11.1679
▁bleak	-11.1681
▁destruction	-11.1681
▁plaster	-11.1681
▁ignore	-11.1682
▁frightened	-11.1684
▁leapt	-11.1685
▁utterly	-11.1688
ever	-11.1688
▁rake	-11.1689
▁flown	-11.1692
▁slate	-11.1695
cum	-11.1698
▁required	-11.1698
▁crowned	-11.1701
▁acres	-11.1703
mus	-11.1703
▁confusion	-11.1704
▁advance	-11.1705
▁miniature	-11.1706
▁descending	-11.1707
▁stealing	-11.1715
trees	-11.1715
▁loaded	-11.1721
ile	-11.1722
▁flashes	-11.1723
▁skulls	-11.1723
▁semi	-11.1726
▁sooner	-11.1726
▁failing	-11.1727
▁secure	-11.1728
gray	-11.173
▁jewels	-11.1731
▁gall	-11.1733
▁outward	-11.1737
▁support	-11.1743
▁gorgeous	-11.1746
self	-11.1753
▁aid	-11.1756
▁smash	-11.1757
▁elbows	-11.1762
▁lids	-11.1768
neck	-11.1776
▁launch	-11.1777
▁tattered	-11.179
▁slap	-11.1792
▁effect	-11.1793
▁forces	-11.1793
▁barbed	-11.1794
▁lend	-11.1796
▁engines	-11.1802
▁threat	-11.1807
▁total	-11.1812
▁bills	-11.1813
▁pins	-11.1813
▁umbrella	-11.1815
▁spear	-11.1819
▁utter	-11.182
▁guys	-11.1824
▁issue	-11.1826
▁sounded	-11.1831
▁plans	-11.1832
▁butcher	-11.1836
▁pa	-11.1838
▁flakes	-11.1839
ray	-11.1852
▁canal	-11.1856
wise	-11.1858
▁los	-11.186
▁restore	-11.1868
▁using	-11.1873
▁compare	-11.1873
▁material	-11.1876
▁carcass	-11.1877
▁dial	-11.1878
▁limits	-11.188
▁flour	-11.1881
▁pigeon	-11.1881
▁drought	-11.1881
▁snapped	-11.1883
▁wrinkled	-11.1884
▁football	-11.1884
hole	-11.1886
▁wicked	-11.189
▁whirling	-11.1896
▁exhausted	-11.1896
▁tub	-11.1898
▁heel	-11.1899
▁sewing	-11.1899
▁smashed	-11.1901
▁eighty	-11.1903
▁charms	-11.1903
▁stalk	-11.1905
▁lighter	-11.1907
star	-11.1907
▁scratched	-11.1908
▁clown	-11.1924
face	-11.1926
▁claimed	-11.1927
ana	-11.1927
▁offers	-11.1936
ns	-11.1936
▁ward	-11.1946
▁harmony	-11.1946
▁worried	-11.1946
step	-11.1951
▁homeless	-11.1957
▁pillows	-11.1962
▁conscious	-11.1965
▁boast	-11.1967
▁quiver	-11.1971
▁parked	-11.1972
cold	-11.1972
▁pounds	-11.1972
▁entering	-11.1974
▁newspapers	-11.1974
century	-11.1975
▁oldest	-11.1976
little	-11.198
everything	-11.198
▁sh	-11.198
▁charming	-11.1981
▁ivy	-11.1983
▁stack	-11.1984
▁plow	-11.1984
▁unfold	-11.1984
▁eaves	-11.1986
▁fifth	-11.1989
▁military	-11.199
▁stirring	-11.1991
▁watery	-11.1992
world	-11.1993
▁ridge	-11.1995
▁tragic	-11.1996
▁acts	-11.2004
▁halo	-11.2004
▁author	-11.2006
eight	-11.2007
▁stacks	-11.2011
great	-11.2018
▁portion	-11.2019
▁individual	-11.2019
qui	-11.202
▁insect	-11.2021
hearted	-11.2023
zi	-11.2029
▁4.	-11.2036
▁battered	-11.2039
▁theory	-11.2039
lay	-11.204
▁humanity	-11.2041
hair	-11.205
weed	-11.2052
▁tank	-11.2052
▁revealed	-11.2059
▁sometime	-11.2059
▁onions	-11.2065
—“	-11.2074
▁sexual	-11.2075
▁grab	-11.2075
▁offering	-11.2077
▁furious	-11.2078
▁africa	-11.2079
▁organ	-11.208
▁elegant	-11.2085
▁possibly	-11.2085
▁boston	-11.2085
▁information	-11.2085
▁sparkling	-11.2086
▁collection	-11.2088
▁stale	-11.2089
▁hunched	-11.2091
fall	-11.2091
▁lays	-11.2096
ver	-11.2099
▁forlorn	-11.2099
act	-11.2103
▁constantly	-11.2105
▁silken	-11.2105
▁loom	-11.2107
▁universal	-11.2109
▁ver	-11.2111
▁crawled	-11.2114
run	-11.2116
▁events	-11.212
ze	-11.2124
▁afford	-11.2127
”)	-11.2134
▁drifted	-11.2135
▁plunge	-11.2136
ped	-11.2136
▁parallel	-11.2137
▁bass	-11.2137
▁aged	-11.2139
▁escaped	-11.2143
▁fort	-11.2144
▁fern	-11.215
▁adore	-11.2151
▁circled	-11.2159
▁disdain	-11.216
▁regard	-11.2165
▁drip	-11.2173
▁spotted	-11.2179
▁dragon	-11.218
ham	-11.2181
▁chased	-11.2182
shot	-11.2191
▁expensive	-11.2196
▁michael	-11.2196
▁diamonds	-11.2204
▁prepare	-11.221
▁detail	-11.2211
▁reward	-11.2211
▁photos	-11.2212
ball	-11.2212
▁defeat	-11.2218
▁languages	-11.2222
▁devotion	-11.2224
▁henry	-11.2226
▁turkey	-11.2226
▁razor	-11.2226
▁volume	-11.2228
▁wagon	-11.2228
▁sow	-11.223
shed	-11.2239
▁shifts	-11.2244
▁tricks	-11.2251
▁facts	-11.2261
vo	-11.2262
▁twig	-11.2264
▁borders	-11.227
▁sighing	-11.227
▁spills	-11.2275
▁trails	-11.2275
▁distress	-11.2276
▁knocking	-11.2282
▁traces	-11.2283
▁elizabeth	-11.2289
▁hates	-11.2291
▁downward	-11.2292
▁fe	-11.2292
▁blond	-11.2292
▁ignorant	-11.2293
▁manhattan	-11.2293
▁splendor	-11.2293
▁striking	-11.2293
▁tumult	-11.2293
▁survival	-11.2293
▁forbidden	-11.2293
▁intact	-11.2293
▁conscience	-11.2293
▁rattling	-11.2293
▁scarf	-11.2294
hold	-11.2294
▁unhappy	-11.2295
▁rotting	-11.2296
▁filthy	-11.2299
▁mankind	-11.2299
▁span	-11.23
▁flapping	-11.23
▁louder	-11.2314
▁murdered	-11.2315
▁wishing	-11.2317
▁catches	-11.2319
ville	-11.2322
▁beautys	-11.2323
▁kneeling	-11.2323
▁deepest	-11.2327
▁major	-11.2331
▁sweetest	-11.2338
▁afterwards	-11.2341
▁blackened	-11.2341
▁spiral	-11.2347
▁feared	-11.2353
▁nectar	-11.2361
▁ignorance	-11.2362
▁mole	-11.2366
▁strangely	-11.2368
▁showers	-11.237
▁gust	-11.2372
▁ka	-11.2372
sh	-11.2374
ud	-11.2392
▁dump	-11.2393
alas	-11.2395
▁divide	-11.2398
▁urge	-11.2398
▁rubbed	-11.2404
▁nought	-11.2406
▁dart	-11.2406
▁grit	-11.241
▁dot	-11.2412
▁hatred	-11.2412
▁uniform	-11.242
▁hooks	-11.2425
▁glint	-11.2428
▁maze	-11.2429
▁owls	-11.2431
▁tuesday	-11.2436
▁kettle	-11.2436
▁tu	-11.244
▁throng	-11.244
▁devils	-11.2444
▁tossing	-11.2446
▁strokes	-11.245
▁demand	-11.245
▁satisfied	-11.2452
▁riot	-11.2452
▁brows	-11.2454
▁shoots	-11.246
▁sweeps	-11.2463
▁thirsty	-11.247
▁blinding	-11.2471
hi	-11.2471
▁labour	-11.2472
▁slit	-11.2473
▁fails	-11.2476
right	-11.2476
▁opera	-11.2478
▁revolution	-11.2479
▁array	-11.2489
▁masks	-11.2493
against	-11.2494
▁pulp	-11.2497
▁brutal	-11.2498
▁measures	-11.2504
▁shimmer	-11.2506
▁platform	-11.2506
▁easier	-11.2506
▁seldom	-11.2506
▁grinning	-11.2506
▁alert	-11.2506
▁vanity	-11.2507
▁spiritual	-11.2507
▁folly	-11.2508
▁lovd	-11.251
▁ham	-11.251
▁thieves	-11.2511
▁trod	-11.2512
▁starlight	-11.2513
▁jest	-11.2513
▁attached	-11.2514
▁motionless	-11.2515
▁shimmering	-11.2526
▁mold	-11.2526
▁balanced	-11.2536
▁sailing	-11.2537
▁forgets	-11.254
▁layer	-11.2544
ize	-11.2549
held	-11.2551
▁bathed	-11.2552
▁nearer	-11.2562
▁considered	-11.2562
▁bows	-11.2563
▁princess	-11.2563
▁bi	-11.2564
▁cloak	-11.2565
▁rustle	-11.2565
▁goal	-11.2568
▁stumbling	-11.2576
▁mistaken	-11.2583
▁darkest	-11.2583
die	-11.2584
▁accent	-11.2586
▁nets	-11.2586
▁lessons	-11.2587
▁extended	-11.259
▁whiteness	-11.2601
▁instruments	-11.2603
▁goats	-11.2603
▁perform	-11.2605
▁william	-11.2612
▁bug	-11.2613
wed	-11.2615
ot	-11.2618
▁beauties	-11.2622
▁freezing	-11.2623
▁shepherds	-11.2624
▁vase	-11.2635
▁section	-11.2636
dy	-11.2638
▁elses	-11.2638
▁sew	-11.2643
▁choke	-11.2644
▁singer	-11.2649
▁pat	-11.2651
▁sidewalks	-11.2653
▁burial	-11.2655
▁calendar	-11.2656
▁bike	-11.2658
▁prophet	-11.2658
▁urn	-11.2659
▁sublime	-11.266
ba	-11.2662
▁professor	-11.2671
▁verses	-11.2671
▁marvel	-11.2671
▁joe	-11.268
▁uncles	-11.2683
▁hairy	-11.2686
▁tame	-11.2689
op	-11.2693
▁kills	-11.2707
▁views	-11.2714
▁recent	-11.2717
▁ferry	-11.2719
▁committee	-11.2723
▁possibility	-11.2723
▁texas	-11.2723
▁anonymous	-11.2724
▁donkey	-11.2724
▁crumbling	-11.2724
▁calf	-11.2724
▁tomatoes	-11.2726
▁corridor	-11.2729
▁forgiveness	-11.2729
▁copy	-11.273
▁thyself	-11.273
▁stretches	-11.2732
▁fo	-11.2732
called	-11.2734
▁jewel	-11.2735
▁cheerful	-11.2738
▁riches	-11.274
▁cleared	-11.2743
▁framed	-11.2745
▁hissing	-11.2748
▁granted	-11.2749
dead	-11.2749
▁splendid	-11.2749
▁crumbs	-11.275
▁interesting	-11.2751
nes	-11.2755
▁slain	-11.2756
▁strands	-11.276
ag	-11.2761
▁knuckles	-11.2763
▁herbs	-11.2766
among	-11.2767
▁translation	-11.2771
▁ticket	-11.2775
▁rushed	-11.2778
▁contained	-11.2783
town	-11.2784
▁brighter	-11.2786
▁regular	-11.2787
▁exquisite	-11.2787
blind	-11.2789
▁spots	-11.279
▁armed	-11.2793
ass	-11.2796
▁taxi	-11.2804
ating	-11.2806
za	-11.2807
▁characters	-11.2807
▁african	-11.2808
▁shadowy	-11.2817
▁equally	-11.2819
▁peck	-11.2822
▁printed	-11.2822
▁pi	-11.283
▁waved	-11.283
fly	-11.2832
▁biting	-11.2839
▁specific	-11.2842
yard	-11.2843
ess	-11.2847
▁halfway	-11.285
▁stains	-11.2857
▁yell	-11.286
▁bulb	-11.2861
▁tangle	-11.2864
▁blankets	-11.2864
▁stall	-11.2866
▁casting	-11.2867
▁counts	-11.287
ina	-11.287
▁condition	-11.2873
▁cannon	-11.2873
▁polite	-11.2874
▁dates	-11.2875
bi	-11.2876
▁region	-11.288
▁strive	-11.2881
▁mission	-11.2883
▁etc	-11.2885
▁legend	-11.2885
▁increase	-11.2887
▁blackbird	-11.2888
▁seventy	-11.2891
▁mal	-11.2906
▁chatter	-11.2906
▁fu	-11.2908
▁hither	-11.2912
▁lifetime	-11.2915
▁hug	-11.292
filled	-11.2927
▁likeness	-11.293
▁fourteen	-11.2935
ley	-11.2943
▁trout	-11.2944
▁snug	-11.2944
▁religious	-11.2946
▁essence	-11.2946
▁coarse	-11.2946
▁charity	-11.2946
▁influence	-11.2947
▁ginger	-11.2948
▁necklace	-11.2948
▁slippery	-11.2948
▁weakness	-11.2948
▁sobbing	-11.2949
▁crumpled	-11.295
▁patches	-11.2954
▁exhaust	-11.2955
▁unborn	-11.2956
▁centre	-11.2964
▁demon	-11.2967
bar	-11.2967
▁politics	-11.2968
▁lure	-11.297
▁chewing	-11.297
▁repeated	-11.2973
▁fleeting	-11.2973
▁onward	-11.2975
▁concern	-11.2983
▁dusky	-11.2984
▁scissors	-11.2986
ite	-11.2988
▁chips	-11.2989
▁citys	-11.3002
▁hunters	-11.3004
▁hounds	-11.3005
▁pee	-11.301
▁monks	-11.3013
▁complex	-11.3014
▁dissolving	-11.3019
art	-11.3023
▁gazed	-11.3029
▁fer	-11.3031
▁virginia	-11.3037
▁credit	-11.3038
▁ledge	-11.3039
speak	-11.3042
▁spheres	-11.3045
▁victim	-11.3049
people	-11.3051
▁melts	-11.3054
▁wreath	-11.3058
▁bleeds	-11.306
▁dared	-11.3065
▁peel	-11.3068
▁paul	-11.3073
▁anew	-11.3078
▁sa	-11.3086
▁miracles	-11.3089
▁bundle	-11.3091
▁sly	-11.3092
▁records	-11.3096
▁tray	-11.3096
winged	-11.3099
▁grind	-11.31
▁consequence	-11.3103
▁impulse	-11.3105
▁apron	-11.3105
▁jew	-11.3106
▁fans	-11.3106
▁scheme	-11.3107
▁tribe	-11.3108
▁sneak	-11.3111
▁charles	-11.3115
cing	-11.3115
jo	-11.312
last	-11.313
▁u	-11.3131
skin	-11.3136
▁perish	-11.3142
q	-11.3143
▁escapes	-11.3148
▁scraped	-11.315
▁mental	-11.3151
▁bunch	-11.3152
▁basin	-11.3156
▁frogs	-11.3156
got	-11.316
▁rigid	-11.3161
▁tumble	-11.3165
▁cypress	-11.3169
▁potato	-11.3169
▁staying	-11.3171
▁cactus	-11.3173
▁lettuce	-11.3173
▁monarch	-11.3173
▁tobacco	-11.3173
▁gliding	-11.3173
▁salmon	-11.3173
▁noisy	-11.3173
▁harry	-11.3173
▁greasy	-11.3174
▁penny	-11.3175
▁johnson	-11.3176
▁lashes	-11.3176
▁gotten	-11.3176
▁splayed	-11.3178
▁brute	-11.318
▁static	-11.318
▁armies	-11.3181
▁mournful	-11.3181
▁stopping	-11.3181
▁skys	-11.3183
▁mat	-11.3184
▁downtown	-11.3186
▁erased	-11.3188
▁scrap	-11.3189
sel	-11.319
▁forming	-11.3193
lot	-11.3194
▁warming	-11.3195
▁swiftly	-11.3195
▁dearest	-11.3197
▁boiling	-11.3197
▁iris	-11.3199
▁lyre	-11.32
▁beings	-11.32
▁pounding	-11.3204
bet	-11.3205
▁rusted	-11.3208
▁sweeter	-11.3212
▁drill	-11.3212
▁repeating	-11.3213
▁dat	-11.3215
▁possessed	-11.3215
▁extreme	-11.3221
▁tulips	-11.3222
▁musical	-11.3223
▁heavn	-11.3224
▁buffalo	-11.3229
drawn	-11.323
▁beans	-11.323
▁proved	-11.323
▁sleepless	-11.3233
cal	-11.3233
▁details	-11.3245
worn	-11.3245
▁settling	-11.3248
▁lords	-11.3249
▁persons	-11.3249
▁silvery	-11.3255
▁lull	-11.3255
▁bloomed	-11.3257
▁queens	-11.326
▁visited	-11.3263
▁gra	-11.3265
▁flap	-11.3266
▁dye	-11.3267
ee	-11.327
▁anxious	-11.3272
▁vault	-11.3277
▁trigger	-11.3279
▁soda	-11.3281
▁poisoned	-11.3285
▁inhabit	-11.3285
▁trumpets	-11.3287
except	-11.3296
another	-11.3297
▁weigh	-11.3297
above	-11.3298
▁clatter	-11.3299
▁goose	-11.3301
▁buzz	-11.3303
▁mars	-11.3306
hard	-11.3313
▁continent	-11.3317
▁easter	-11.3321
▁steer	-11.3324
▁longed	-11.3331
▁spins	-11.3337
mon	-11.3337
▁arrival	-11.3338
▁graveyard	-11.3338
▁servant	-11.334
▁driveway	-11.334
▁drug	-11.334
▁require	-11.3341
▁rooster	-11.3342
▁parks	-11.3343
▁pregnant	-11.3346
▁prisoner	-11.3351
▁sale	-11.3361
▁flowering	-11.3363
▁hurricane	-11.3365
▁zoo	-11.3368
▁voyage	-11.3369
bus	-11.3375
rest	-11.3377
▁painful	-11.3379
▁mob	-11.338
▁slaughter	-11.3387
▁fret	-11.3398
▁impatient	-11.34
▁flake	-11.3401
fully	-11.3402
▁sauce	-11.3402
▁sandwich	-11.3402
▁math	-11.3403
▁knelt	-11.3405
▁majesty	-11.3405
▁parlor	-11.3405
▁computer	-11.3406
▁singular	-11.3406
▁clever	-11.3406
▁descent	-11.3406
▁assume	-11.3407
▁washington	-11.3408
▁romance	-11.3409
▁ohio	-11.3409
▁metallic	-11.341
▁identity	-11.3412
▁formal	-11.3415
▁hark	-11.3415
▁ra	-11.3416
▁saddle	-11.3418
ice	-11.3419
ated	-11.3422
▁trembles	-11.3422
▁buzzing	-11.3426
ard	-11.3429
▁wiped	-11.3432
▁trembled	-11.3435
▁features	-11.3439
▁curling	-11.3441
▁weightless	-11.3441
▁chambers	-11.3444
▁plump	-11.3445
▁nostrils	-11.3448
▁practiced	-11.3449
▁sailors	-11.345
rate	-11.3451
sea	-11.3455
▁practical	-11.346
▁site	-11.3462
▁pierced	-11.3465
▁degrees	-11.3466
▁clothing	-11.3466
iron	-11.3467
▁jews	-11.3473
▁scraps	-11.3475
▁intense	-11.3476
▁sighed	-11.3478
bel	-11.3479
ach	-11.3482
▁wan	-11.3492
door	-11.3495
▁grinding	-11.3502
▁drained	-11.3505
▁magical	-11.3511
▁ambition	-11.3512
▁laurel	-11.3516
▁stump	-11.3516
ue	-11.3524
res	-11.3525
▁angles	-11.3526
▁garments	-11.3526
▁surfaces	-11.353
▁blessings	-11.3531
hol	-11.3536
▁bred	-11.3538
▁origin	-11.3538
▁wanton	-11.3541
▁steaming	-11.3542
ries	-11.3544
▁que	-11.3549
▁observe	-11.3556
▁treasures	-11.3558
▁protest	-11.356
▁collapse	-11.3562
▁gnaw	-11.3565
▁lambs	-11.3565
▁fling	-11.3565
▁pinch	-11.357
hung	-11.3571
▁rabbits	-11.3572
▁teachers	-11.3572
▁video	-11.3575
▁sur	-11.3575
▁appetite	-11.3576
▁emperor	-11.3578
▁tempest	-11.3578
▁nightmare	-11.358
perhaps	-11.3582
▁wallet	-11.3583
same	-11.3583
gy	-11.3585
▁hint	-11.3586
▁maker	-11.3588
▁blinds	-11.3593
eyes	-11.3606
lights	-11.3608
▁joint	-11.3611
▁bother	-11.3611
▁dancer	-11.3612
▁solo	-11.3622
▁abide	-11.3624
▁liver	-11.3625
▁cans	-11.3626
▁rejoice	-11.3628
▁file	-11.3628
▁seeming	-11.3633
▁fried	-11.3636
ons	-11.3639
▁junk	-11.3642
▁directly	-11.3642
▁anxiety	-11.3644
▁exotic	-11.3644
▁incense	-11.3644
▁necessity	-11.3644
▁crescent	-11.3644
▁composed	-11.3644
▁envelope	-11.3644
▁bobbing	-11.3644
▁stony	-11.3644
▁humid	-11.3645
▁clamor	-11.3645
▁negative	-11.3646
▁grocery	-11.3646
▁gospel	-11.3647
▁comfortable	-11.3647
▁outstretched	-11.3649
▁adam	-11.3649
▁alongside	-11.365
rain	-11.3651
▁greedy	-11.3653
cle	-11.3654
▁idiot	-11.3654
▁gladness	-11.3654
▁rained	-11.3656
▁swims	-11.3657
▁peering	-11.3663
▁bathe	-11.3667
▁fades	-11.3669
▁applause	-11.3672
▁theirs	-11.3674
▁dash	-11.3675
▁grandma	-11.3675
▁bade	-11.3677
▁tourists	-11.3682
fer	-11.3684
▁throughout	-11.3684
▁shark	-11.3691
▁mule	-11.3695
▁stately	-11.3696
▁lament	-11.3699
▁traveled	-11.3699
ory	-11.3703
must	-11.3704
▁motor	-11.3706
▁secretly	-11.3709
▁fir	-11.3711
▁suspect	-11.3714
▁distances	-11.3714
across	-11.3714
▁goodness	-11.3721
bra	-11.3721
▁remembrance	-11.3722
als	-11.3735
▁teaching	-11.3738
▁brim	-11.374
dear	-11.374
▁lilacs	-11.3741
▁ark	-11.3741
tal	-11.3749
▁descends	-11.3752
▁foes	-11.3761
▁pose	-11.3764
nay	-11.3765
▁monsters	-11.3769
▁mesh	-11.3771
▁willows	-11.3773
try	-11.378
▁retreat	-11.378
bo	-11.3784
▁writ	-11.3786
▁caps	-11.3792
▁peer	-11.3793
▁helps	-11.3794
rous	-11.38
▁gleams	-11.3802
▁twine	-11.3809
▁fare	-11.3809
▁custom	-11.3811
▁curves	-11.3811
▁violin	-11.3812
flower	-11.3818
▁departure	-11.3818
▁dr	-11.3818
▁response	-11.382
▁perspective	-11.382
▁terrace	-11.3821
▁saving	-11.3821
▁cigar	-11.3821
▁invention	-11.3822
▁fragment	-11.3822
▁puddle	-11.3822
▁hillside	-11.3823
▁snows	-11.3825
▁siren	-11.3826
▁salute	-11.383
▁rid	-11.3833
▁fits	-11.3835
▁sofa	-11.3836
▁marsh	-11.3839
▁crowns	-11.384
▁heights	-11.3843
▁mister	-11.3845
▁intention	-11.3846
▁lincoln	-11.3849
▁doomed	-11.3852
▁thumbs	-11.3857
poor	-11.3862
▁stew	-11.3868
▁contract	-11.3872
▁crop	-11.3872
blood	-11.3874
▁refuge	-11.3876
▁dazzling	-11.3877
▁shops	-11.3878
▁knotted	-11.3878
▁wits	-11.3879
▁shakespeare	-11.388
▁awe	-11.3883
someone	-11.3884
▁streak	-11.3885
ration	-11.3886
▁period	-11.3886
▁excess	-11.3887
▁mimic	-11.3887
▁gauze	-11.3887
▁monstrous	-11.3887
▁sequence	-11.3887
▁shelves	-11.3887
▁tragedy	-11.3887
▁canopy	-11.3887
▁clarity	-11.3888
▁beatrice	-11.3888
▁resistance	-11.3888
▁keel	-11.3888
▁pursuit	-11.3888
▁cruelty	-11.3889
▁frantic	-11.3889
idal	-11.3892
▁active	-11.3892
▁lens	-11.3893
▁huddled	-11.3894
▁mingled	-11.3897
▁rushes	-11.39
▁blindness	-11.3906
▁glinting	-11.3911
▁abroad	-11.3911
▁stripes	-11.3916
▁dick	-11.3916
▁champagne	-11.3917
▁canst	-11.3921
▁hunted	-11.3923
tu	-11.3927
▁hooked	-11.3927
▁paying	-11.3927
▁sliced	-11.3928
▁peep	-11.3929
▁maintain	-11.3931
▁invite	-11.3936
real	-11.3939
▁sights	-11.394
▁glances	-11.3941
hood	-11.3944
ou	-11.395
▁security	-11.3954
ied	-11.3955
▁servants	-11.3956
proof	-11.3957
▁ether	-11.3968
▁tanks	-11.397
▁rocky	-11.3973
▁bowls	-11.3977
▁chimes	-11.398
▁term	-11.3988
▁depend	-11.3993
▁hop	-11.3993
▁frames	-11.3995
▁dots	-11.4002
▁settles	-11.4006
▁lump	-11.4008
▁chemical	-11.4009
leaving	-11.401
▁graceful	-11.4011
▁habits	-11.4015
▁sounding	-11.4016
▁sam	-11.4021
turn	-11.403
ich	-11.403
▁ladders	-11.4031
▁tunnels	-11.4043
tin	-11.4047
cant	-11.4048
▁rack	-11.4051
▁mound	-11.4053
midst	-11.4056
▁bruise	-11.4057
▁disgrace	-11.4057
▁zone	-11.4059
▁bang	-11.4064
▁ripples	-11.4065
▁estate	-11.4069
▁shawl	-11.407
ming	-11.4071
▁warrior	-11.4072
▁glen	-11.4072
▁rippling	-11.4074
▁terrified	-11.4074
▁piercing	-11.4074
▁similar	-11.4077
▁groan	-11.408
fe	-11.4083
▁deed	-11.4086
▁rainy	-11.4091
▁erase	-11.4098
▁sprout	-11.4101
▁gasp	-11.4109
▁mend	-11.4112
▁lantern	-11.4113
▁fra	-11.4114
▁crib	-11.4114
▁winning	-11.4118
▁vigil	-11.4125
▁dawns	-11.4125
▁woes	-11.4127
woman	-11.4131
▁gracious	-11.4131
▁earnest	-11.4132
▁contact	-11.4137
▁rubbing	-11.4137
▁translucent	-11.4137
▁tumbling	-11.4137
▁vacuum	-11.4137
▁azure	-11.4137
▁aspire	-11.4137
▁enchanted	-11.4138
▁pensive	-11.4138
▁construction	-11.4139
▁shady	-11.414
shes	-11.4141
▁gradually	-11.4141
▁mustard	-11.4143
▁seaweed	-11.4143
sun	-11.4144
▁penis	-11.4144
▁grabbed	-11.4148
▁including	-11.4149
▁tumbled	-11.4149
▁roadside	-11.415
▁lingering	-11.4153
▁thaw	-11.4156
▁billy	-11.4157
does	-11.4158
▁grains	-11.4158
▁righteous	-11.4159
gh	-11.416
point	-11.4162
▁sweetheart	-11.4162
▁tastes	-11.4165
▁suburbs	-11.4166
▁wailing	-11.4169
▁heron	-11.417
▁sunsets	-11.4173
ments	-11.4174
▁ken	-11.4177
▁endlessly	-11.4177
making	-11.4177
behind	-11.418
▁safely	-11.418
▁fucked	-11.4183
cas	-11.4185
▁fishes	-11.4186
ram	-11.4186
ki	-11.4188
▁enable	-11.4189
▁conceal	-11.419
▁county	-11.4191
▁charged	-11.4193
▁boulders	-11.4195
father	-11.4196
▁lipstick	-11.4197
▁citizens	-11.42
dust	-11.4202
▁weapon	-11.4202
▁prevent	-11.4203
sick	-11.4204
▁wayne	-11.4205
▁writers	-11.4206
▁rapture	-11.4206
washed	-11.4206
please	-11.4207
▁casual	-11.4212
▁insist	-11.4212
▁outline	-11.4215
▁hits	-11.4215
ven	-11.4218
▁pad	-11.4218
▁wo	-11.4219
▁cooked	-11.4219
▁remorse	-11.422
▁community	-11.422
▁brooklyn	-11.422
▁muffled	-11.422
▁feeble	-11.4221
▁stamp	-11.4223
▁graces	-11.4229
▁rails	-11.4229
▁nothingness	-11.4233
▁manners	-11.424
▁countless	-11.4245
▁flute	-11.4246
▁vo	-11.4247
▁feathered	-11.4249
▁success	-11.4251
liest	-11.4252
▁faintly	-11.4253
▁twins	-11.426
▁boiled	-11.4262
▁degree	-11.4262
▁slopes	-11.4263
▁strains	-11.4265
▁wildly	-11.4265
ster	-11.4269
▁discuss	-11.4269
▁brine	-11.4273
▁scarred	-11.4275
▁greens	-11.4279
▁orchards	-11.428
▁priests	-11.428
▁bog	-11.428
▁13	-11.4291
▁licked	-11.4291
sa	-11.4292
▁somewhat	-11.4293
▁poles	-11.4294
▁prim	-11.4302
▁ram	-11.4305
▁david	-11.4305
▁senseless	-11.4306
▁decline	-11.4308
▁muses	-11.431
▁limit	-11.4311
▁cluster	-11.4312
▁deserve	-11.4312
tion	-11.4312
▁surge	-11.4313
▁owe	-11.4319
▁husk	-11.4321
▁shriek	-11.4322
▁torso	-11.4326
▁unaware	-11.4326
▁sieve	-11.4326
▁butt	-11.4327
▁bouquet	-11.4328
▁weekend	-11.4329
▁acknowledge	-11.4332
▁rooted	-11.4332
▁slab	-11.4334
ery	-11.4336
▁orphan	-11.4338
▁hoof	-11.434
within	-11.4346
▁chaste	-11.4349
▁area	-11.4352
▁heroic	-11.4353
▁babys	-11.4354
▁stable	-11.4355
▁prospect	-11.4357
▁choked	-11.4364
▁disorder	-11.4366
▁por	-11.4372
▁15	-11.4372
▁awaken	-11.4373
wash	-11.4374
fields	-11.4374
▁shudder	-11.4375
▁fain	-11.4376
tho	-11.4379
▁counsel	-11.4383
grass	-11.4384
▁february	-11.4384
▁unexpected	-11.4387
▁insane	-11.4387
▁draped	-11.439
song	-11.439
▁concert	-11.439
▁mattress	-11.439
▁glimmer	-11.4391
▁carnival	-11.4394
▁luxury	-11.4394
▁philosophy	-11.4394
▁wolves	-11.4394
▁glories	-11.4394
▁inevitable	-11.4394
▁daisies	-11.4394
▁gallery	-11.4394
▁denied	-11.4394
▁boredom	-11.4394
▁charred	-11.4394
▁fawn	-11.4395
▁countries	-11.4395
▁jelly	-11.4395
▁swore	-11.4396
▁turf	-11.4396
▁extinction	-11.4396
▁electricity	-11.4396
▁trench	-11.4399
▁headlights	-11.44
▁jokes	-11.44
▁harmless	-11.44
▁grid	-11.4401
▁mare	-11.4406
▁seventh	-11.4407
wa	-11.4408
▁windshield	-11.4409
▁nakedness	-11.4411
▁elevator	-11.4411
▁holiday	-11.4412
▁mentioned	-11.4412
▁pilgrim	-11.4412
▁weighed	-11.4413
▁freed	-11.4413
▁reflecting	-11.4413
▁des	-11.4414
▁rhymes	-11.4415
▁scraping	-11.4417
▁collected	-11.4417
▁peeling	-11.4417
▁marbles	-11.4418
▁flushed	-11.4421
took	-11.4421
▁interested	-11.4422
▁tones	-11.4423
▁fugitive	-11.4424
▁everyday	-11.4424
▁recognized	-11.4424
▁ridiculous	-11.4425
▁powr	-11.4428
▁youthful	-11.4432
▁nipples	-11.4439
▁borrow	-11.444
▁dining	-11.4446
▁travels	-11.445
▁lesser	-11.445
▁emerge	-11.4451
▁mounds	-11.4463
▁regions	-11.447
▁tilt	-11.4471
▁pears	-11.4472
think	-11.4478
▁arriving	-11.4479
▁obscene	-11.448
▁ideal	-11.4483
cap	-11.4485
▁gossip	-11.4486
ex	-11.4487
▁jam	-11.4488
▁smack	-11.4497
▁bowing	-11.4503
▁litter	-11.4504
▁reflections	-11.4513
▁soar	-11.4516
▁+	-11.4517
ual	-11.452
▁sentences	-11.452
▁mexican	-11.4521
▁poetic	-11.4521
▁whistles	-11.4525
▁pilot	-11.4527
▁filth	-11.4528
▁scant	-11.4529
▁plums	-11.4531
ks	-11.4531
▁sufficient	-11.4536
▁raising	-11.4539
▁resembles	-11.4542
ii	-11.455
▁smith	-11.4552
▁breed	-11.4553
▁extend	-11.4554
▁headed	-11.4555
▁braid	-11.4556
talk	-11.4558
▁hawks	-11.4558
▁systems	-11.4563
taking	-11.4588
▁buddha	-11.4588
▁texture	-11.4588
cat	-11.4589
footed	-11.459
▁thistle	-11.459
▁nightingale	-11.459
▁nymph	-11.4591
▁role	-11.4591
▁banner	-11.4592
▁mansion	-11.4596
▁robin	-11.4596
▁waterfall	-11.4599
▁hunter	-11.46
▁sniff	-11.4605
▁product	-11.4605
▁hound	-11.4608
bit	-11.4611
▁sweater	-11.4612
▁realm	-11.4614
▁shun	-11.4618
▁vapor	-11.4632
rum	-11.4638
▁crook	-11.4641
▁troubles	-11.4642
▁qui	-11.4649
▁perpetual	-11.465
▁continuous	-11.465
▁stations	-11.4655
▁loyal	-11.4657
▁crept	-11.4657
▁fragrance	-11.4657
▁porcelain	-11.4657
▁woodstove	-11.4657
▁starving	-11.4657
▁architecture	-11.4657
▁throbbing	-11.4657
▁pennies	-11.4657
▁chopped	-11.4657
▁grammar	-11.4657
▁civilization	-11.4657
▁blake	-11.4658
▁crackling	-11.4659
▁soot	-11.466
▁lofty	-11.4661
▁stubble	-11.4661
▁glossy	-11.4663
▁pry	-11.4663
▁windowsill	-11.4663
▁cupped	-11.4663
▁await	-11.4664
▁convinced	-11.4666
▁hurled	-11.4668
▁properly	-11.4669
▁challenge	-11.4672
▁thrush	-11.4678
lic	-11.4678
▁agreed	-11.4683
▁disappears	-11.4683
ins	-11.4684
▁physical	-11.4684
▁spires	-11.4687
▁managed	-11.4687
▁privacy	-11.4689
▁aluminum	-11.4689
par	-11.4689
▁profile	-11.4689
▁licking	-11.4689
wing	-11.469
▁waken	-11.4695
▁symbol	-11.4695
saw	-11.4697
▁survived	-11.4698
▁noises	-11.4704
▁roast	-11.4706
▁pebble	-11.4707
▁lowered	-11.4707
▁baskets	-11.4708
▁shouted	-11.471
▁ruby	-11.4714
▁oars	-11.4715
▁renew	-11.4716
▁tiles	-11.4717
▁sp	-11.4719
▁exposed	-11.4719
▁lab	-11.4721
▁entry	-11.4723
▁lent	-11.4728
▁ties	-11.4728
▁searched	-11.4728
▁cleft	-11.4732
▁mop	-11.4732
▁requires	-11.4732
nie	-11.4737
▁darts	-11.4739
▁badly	-11.474
▁balloons	-11.4744
▁profit	-11.4744
▁pulsing	-11.4744
▁loaf	-11.4745
ups	-11.4746
▁epic	-11.4746
▁airy	-11.4747
▁swoop	-11.4749
▁glazed	-11.4751
▁crouched	-11.4752
ni	-11.4753
ste	-11.4758
▁trans	-11.4764
▁include	-11.4768
lock	-11.4769
▁whine	-11.477
▁connect	-11.4771
low	-11.4786
▁spat	-11.4786
pu	-11.479
vor	-11.4791
▁americans	-11.4795
▁strips	-11.4799
▁ninety	-11.4802
▁deserted	-11.4807
19	-11.4811
▁mall	-11.4812
death	-11.4813
▁cop	-11.4815
beneath	-11.4816
▁cricket	-11.4821
▁fright	-11.4822
▁everyones	-11.4823
▁ascend	-11.4824
▁summon	-11.4825
▁grandfathers	-11.4828
▁dressing	-11.483
▁declare	-11.4833
inside	-11.4834
ure	-11.4837
▁enclosed	-11.4837
ect	-11.4837
els	-11.4838
gu	-11.4839
▁wherein	-11.4841
▁respond	-11.4841
▁perceive	-11.4844
▁baked	-11.4847
▁darken	-11.4849
▁uses	-11.4851
silver	-11.4852
▁bump	-11.4853
▁procession	-11.4853
▁flip	-11.4857
▁destination	-11.4857
▁babe	-11.4858
▁parent	-11.4859
▁wither	-11.486
▁narrative	-11.486
▁attitude	-11.4861
▁device	-11.4862
▁apparently	-11.4862
▁oval	-11.4863
▁nap	-11.4873
▁severe	-11.4874
▁romantic	-11.4876
mad	-11.4876
▁---	-11.4877
▁lanes	-11.488
many	-11.4882
flat	-11.4882
▁fig	-11.4884
▁farms	-11.4884
ties	-11.4886
▁tax	-11.4886
▁musk	-11.489
▁drags	-11.4896
▁com	-11.4901
ci	-11.4913
▁hurried	-11.492
▁marvelous	-11.4921
▁thirteen	-11.4926
▁imperial	-11.4927
▁clumsy	-11.4927
▁escaping	-11.4927
▁happier	-11.4927
▁jersey	-11.4927
▁opaque	-11.4927
▁cherries	-11.4927
▁myriad	-11.4927
▁chasing	-11.4927
▁whither	-11.4928
▁untouched	-11.4928
▁bony	-11.4928
▁unkind	-11.4928
▁boring	-11.493
▁parched	-11.4931
▁immediately	-11.4932
▁ego	-11.4934
▁dice	-11.4935
▁pomp	-11.4936
▁gull	-11.4937
▁eclipse	-11.4938
▁tomato	-11.4938
▁stitched	-11.4941
▁replaced	-11.4941
▁relentless	-11.4941
▁background	-11.4941
▁hues	-11.4944
▁divorce	-11.4944
▁captured	-11.4945
▁solar	-11.4945
▁(“	-11.4947
▁shuddering	-11.4948
lipped	-11.4948
▁stumbled	-11.495
▁sorts	-11.4953
▁twitch	-11.4954
▁dissolved	-11.4954
fl	-11.4955
▁reflect	-11.4955
▁racing	-11.4961
▁visitors	-11.4961
ler	-11.4961
▁raging	-11.4962
▁dreadful	-11.4962
▁ticking	-11.4963
▁satan	-11.4963
ren	-11.4966
▁hinges	-11.497
▁peaks	-11.4971
▁kicking	-11.4971
▁gladly	-11.4972
ac	-11.4978
▁jug	-11.4982
▁caged	-11.4983
▁irony	-11.4987
▁bleached	-11.4987
▁lighting	-11.4987
pie	-11.4989
▁suggest	-11.4989
▁seams	-11.499
▁laying	-11.4992
▁jumping	-11.4994
▁rested	-11.4995
▁warriors	-11.4998
▁marched	-11.5
▁salty	-11.5001
▁drugs	-11.5004
▁beetle	-11.5005
▁doe	-11.5006
▁capture	-11.5009
▁swans	-11.5012
ified	-11.5015
▁discipline	-11.5017
▁nodding	-11.5017
▁effects	-11.5019
▁cabbage	-11.5019
▁remaining	-11.5022
▁crab	-11.5023
ade	-11.5023
pos	-11.5024
▁heaving	-11.5024
▁elms	-11.5027
▁link	-11.5034
▁pardon	-11.5034
▁grounds	-11.5041
▁landed	-11.5041
▁owned	-11.5044
▁peeled	-11.5045
▁wraps	-11.505
▁bugs	-11.5058
▁riddle	-11.506
sound	-11.5065
▁career	-11.5068
▁helmet	-11.5071
▁stench	-11.5075
▁chances	-11.5075
▁alleys	-11.5077
▁buckets	-11.5078
▁crawls	-11.5081
soft	-11.5082
▁womens	-11.5082
tro	-11.5083
nu	-11.5094
aged	-11.5094
▁hull	-11.5095
▁warned	-11.5096
▁devour	-11.5101
▁veils	-11.5106
▁consume	-11.5108
▁disguise	-11.5121
▁puzzle	-11.5121
▁resemble	-11.5121
alone	-11.5128
▁trunks	-11.5134
▁picnic	-11.5135
▁pyramid	-11.5137
▁costume	-11.5138
▁sensation	-11.5138
▁trial	-11.5139
▁squirrel	-11.514
▁rebel	-11.5142
▁rumor	-11.5143
▁fiddle	-11.5145
▁cages	-11.5146
▁stake	-11.515
▁traveler	-11.5153
▁tombs	-11.5159
▁creak	-11.5161
▁whirl	-11.5163
▁exercise	-11.5166
▁spines	-11.5167
fu	-11.5168
▁disgust	-11.5168
▁explanation	-11.5168
▁despise	-11.5173
▁asia	-11.5177
▁tag	-11.5177
ig	-11.5178
▁speck	-11.5179
▁nailed	-11.518
▁cable	-11.5182
▁writer	-11.5185
▁affect	-11.5187
ire	-11.5187
▁evn	-11.5194
▁banquet	-11.5195
▁strict	-11.5198
close	-11.5201
▁comic	-11.5202
▁spy	-11.5202
▁repent	-11.5203
▁quaint	-11.5204
▁india	-11.5204
▁circus	-11.5205
▁depression	-11.5205
▁infinity	-11.5205
▁oxygen	-11.5205
▁sprang	-11.5205
▁supreme	-11.5205
▁territory	-11.5205
▁unusual	-11.5205
▁wrung	-11.5205
▁gasoline	-11.5205
▁heavily	-11.5205
▁refusing	-11.5205
▁mysteries	-11.5205
▁hoarse	-11.5206
▁authority	-11.5206
▁lava	-11.5207
▁playground	-11.5207
▁embarrassed	-11.5208
▁whitman	-11.5208
▁betrayed	-11.521
▁intended	-11.5212
▁walter	-11.5214
▁joyous	-11.5218
▁swirling	-11.5222
▁leaking	-11.5224
▁eyebrows	-11.5229
▁admired	-11.5232
▁clutching	-11.5234
▁severed	-11.5235
▁magnificent	-11.5238
▁members	-11.5241
▁demands	-11.5241
▁nearest	-11.5241
▁amount	-11.5242
▁awoke	-11.5244
▁eternally	-11.5246
▁stockings	-11.5247
▁breaths	-11.5247
▁rounded	-11.5251
▁peek	-11.5252
▁essential	-11.5255
▁gained	-11.5256
▁heave	-11.5259
▁loudly	-11.526
▁oily	-11.5262
▁squares	-11.5263
▁nuts	-11.5264
▁rate	-11.5265
iii	-11.5268
▁traced	-11.527
▁sheds	-11.5271
sky	-11.5274
heads	-11.5274
▁weapons	-11.5277
▁rinse	-11.528
▁leafy	-11.5283
▁joints	-11.5283
▁guessed	-11.529
▁flowed	-11.5296
▁obtain	-11.5299
▁dignity	-11.5299
▁colours	-11.5304
says	-11.531
▁raining	-11.5313
▁nightly	-11.5313
soon	-11.5319
▁olives	-11.5324
▁cords	-11.5324
▁delighted	-11.5328
▁glows	-11.5333
▁ordered	-11.5336
▁spice	-11.5341
new	-11.5343
▁charges	-11.5347
▁signed	-11.5348
▁beautifully	-11.5352
jack	-11.5354
▁wove	-11.5355
▁hammers	-11.536
▁hosts	-11.5361
▁seam	-11.5363
▁lighted	-11.5366
▁licks	-11.5368
▁beaks	-11.5369
▁onion	-11.5376
▁patrol	-11.5377
▁tool	-11.5381
▁beware	-11.5382
▁lyric	-11.5387
sis	-11.5392
▁bitten	-11.5397
▁contains	-11.5409
▁beetles	-11.541
▁blinded	-11.5412
▁orchestra	-11.5412
▁confession	-11.5418
▁iridescent	-11.5419
▁dazed	-11.542
▁wednesday	-11.5421
▁fortunes	-11.5422
▁egyptian	-11.5422
▁aspect	-11.5423
▁fleece	-11.5423
▁triangle	-11.5423
▁target	-11.5424
▁thursday	-11.5424
▁maples	-11.5425
▁reek	-11.5425
▁anybody	-11.5425
▁handed	-11.5426
▁boulder	-11.5426
▁triple	-11.5428
▁oven	-11.5428
▁bin	-11.5435
lines	-11.5441
▁smoked	-11.5443
▁hatch	-11.5444
flowers	-11.5444
▁spits	-11.5453
▁susan	-11.5455
▁lasting	-11.5455
▁froth	-11.5468
▁problems	-11.5469
▁request	-11.5473
▁banish	-11.5474
▁inherit	-11.5475
▁damage	-11.5477
▁scotch	-11.5482
▁expecting	-11.5483
▁bait	-11.5486
▁humor	-11.5487
▁vital	-11.549
▁ecstatic	-11.5491
▁galaxy	-11.5491
▁gratitude	-11.5491
▁happily	-11.5491
▁identical	-11.5491
▁flint	-11.5491
▁horrible	-11.5491
▁excellent	-11.5491
▁rural	-11.5491
▁index	-11.5491
▁scrubbed	-11.5491
▁wintry	-11.5491
▁society	-11.5491
▁poppies	-11.5491
▁urban	-11.5492
▁limestone	-11.5492
heart	-11.5492
▁unfinished	-11.5492
▁motel	-11.5493
▁immortality	-11.5493
▁slapped	-11.5493
pit	-11.5494
▁discern	-11.5494
▁protection	-11.5495
always	-11.5495
whatever	-11.5495
▁chrome	-11.5496
▁dante	-11.5496
▁lining	-11.5497
▁recently	-11.55
boys	-11.55
▁precisely	-11.5502
▁squinting	-11.5502
▁flattened	-11.5503
▁neatly	-11.5503
▁function	-11.5505
▁dung	-11.5506
▁busted	-11.5508
▁childish	-11.5509
port	-11.551
▁argue	-11.5512
▁echoing	-11.5513
▁sunlit	-11.5514
▁compared	-11.5515
▁revelation	-11.5516
▁united	-11.5516
▁unfolding	-11.5519
▁surround	-11.552
▁pall	-11.5521
▁wrinkles	-11.5522
▁auto	-11.5524
▁clicking	-11.5526
▁dreamer	-11.5527
▁overnight	-11.5532
▁misty	-11.5535
ax	-11.5537
▁pairs	-11.5541
▁cain	-11.5542
▁diving	-11.5542
near	-11.5542
▁halt	-11.5542
stained	-11.5544
▁calmly	-11.5545
▁lawns	-11.5547
▁wiser	-11.5547
▁existed	-11.5548
▁beggars	-11.5549
▁20	-11.5551
▁chained	-11.5559
▁braids	-11.5562
▁tuck	-11.5564
▁earn	-11.5566
▁bruises	-11.5566
▁logs	-11.5567
▁cracking	-11.5567
▁constellations	-11.5568
fair	-11.557
▁nightmares	-11.557
▁files	-11.5573
▁tribes	-11.5574
▁wreaths	-11.5578
▁clerk	-11.558
▁organs	-11.5585
▁vinegar	-11.5585
▁adieu	-11.5586
▁towels	-11.5587
▁repetition	-11.5588
▁brushing	-11.5591
▁highlight	-11.5597
▁pens	-11.5598
▁fr	-11.5606
▁paste	-11.5607
▁boundless	-11.5608
▁widow	-11.5611
▁bob	-11.5615
▁hack	-11.5616
▁heading	-11.5619
▁wifes	-11.5628
▁ko	-11.5629
▁flank	-11.5631
▁char	-11.5633
▁spells	-11.5633
ez	-11.5633
tz	-11.5635
▁garland	-11.5636
▁causes	-11.5638
▁dime	-11.5643
▁blithe	-11.5648
▁joyful	-11.565
▁grassy	-11.5654
▁spa	-11.5656
▁bond	-11.566
▁greeks	-11.566
▁steals	-11.566
▁draft	-11.5662
▁pushes	-11.5663
▁prompt	-11.5671
▁trance	-11.5678
▁betray	-11.5683
▁fetch	-11.5687
▁leak	-11.5687
▁warn	-11.5689
uz	-11.5689
▁preserve	-11.5701
▁soak	-11.5704
nce	-11.5706
▁seize	-11.5707
▁capable	-11.5709
▁graze	-11.5712
▁bestow	-11.5716
▁training	-11.5716
▁emerald	-11.5716
▁spruce	-11.5716
▁represent	-11.5717
▁defense	-11.5718
▁talent	-11.572
ji	-11.5721
▁flashlight	-11.5721
▁bicycle	-11.5724
▁expand	-11.5726
een	-11.5729
ations	-11.5734
▁compose	-11.5735
ves	-11.5737
▁surrounding	-11.5737
lost	-11.5738
med	-11.5738
▁painter	-11.5747
▁thump	-11.5747
▁blend	-11.5748
▁rocked	-11.5748
▁bites	-11.5749
▁arose	-11.5752
▁wells	-11.5761
▁orient	-11.5763
▁lurch	-11.5764
laid	-11.5772
▁coach	-11.5774
▁paintings	-11.5774
▁vertical	-11.5778
▁unconscious	-11.5778
▁soothe	-11.5784
▁bathtub	-11.5785
▁behavior	-11.5785
▁democracy	-11.5785
▁giddy	-11.5785
▁harlem	-11.5785
▁peculiar	-11.5785
▁pistol	-11.5785
▁revenge	-11.5785
▁sympathy	-11.5785
▁temperature	-11.5785
▁carving	-11.5785
▁flaring	-11.5785
▁clung	-11.5785
▁occurred	-11.5785
▁sensual	-11.5786
▁tropical	-11.5786
▁raven	-11.5787
▁machinery	-11.5788
▁robinson	-11.5788
▁troy	-11.5789
▁slink	-11.579
▁chipped	-11.5791
▁scorched	-11.5793
▁farthe	-11.5793
▁hose	-11.58
▁noose	-11.58
▁battles	-11.58
▁lodged	-11.5803
▁assumed	-11.5805
▁shards	-11.5806
▁undo	-11.5807
▁gloomy	-11.5808
▁ignored	-11.5809
▁footprints	-11.581
▁chestnut	-11.5814
▁instructions	-11.5816
▁taller	-11.5818
▁salad	-11.582
▁described	-11.582
▁expanse	-11.5821
▁qua	-11.5821
▁softness	-11.5822
▁dewy	-11.5823
▁een	-11.5827
▁hi	-11.5828
warm	-11.583
con	-11.5831
▁ceased	-11.5833
▁reminded	-11.5834
▁fleeing	-11.5834
covered	-11.5838
▁aisles	-11.5841
smoke	-11.5845
▁weeps	-11.5847
women	-11.5849
▁fins	-11.5856
▁emerges	-11.5861
▁villages	-11.5863
▁bet	-11.5865
▁recite	-11.5867
▁heir	-11.5873
▁flashed	-11.5877
▁vegetable	-11.588
home	-11.5881
▁domestic	-11.5882
▁cursing	-11.5883
▁heavier	-11.5883
▁molten	-11.5883
▁apollo	-11.5883
everyone	-11.5885
child	-11.5885
▁multiple	-11.5887
along	-11.5888
hell	-11.5892
▁drivers	-11.5893
▁trousers	-11.5893
▁cakes	-11.5895
free	-11.5896
▁screens	-11.5896
▁explained	-11.5899
▁hymns	-11.59
ay	-11.5902
▁doubts	-11.5902
▁capital	-11.5904
▁artists	-11.5906
▁signals	-11.5909
▁understands	-11.5918
▁seals	-11.5918
▁tilted	-11.5921
▁hoe	-11.5921
▁correct	-11.5921
moon	-11.5925
▁soaring	-11.5925
▁crude	-11.5925
rise	-11.5933
▁breezes	-11.5933
▁infants	-11.5933
▁passengers	-11.5937
▁cases	-11.5937
hey	-11.5939
▁profound	-11.5939
ros	-11.594
▁abundance	-11.5947
▁emerging	-11.5947
▁odds	-11.5948
▁tile	-11.595
days	-11.5952
▁reduced	-11.5957
tan	-11.596
▁flocks	-11.5963
▁answering	-11.5971
▁tents	-11.5975
▁delights	-11.5977
▁lance	-11.5988
▁diet	-11.5988
▁thence	-11.599
▁spoons	-11.5991
▁knocks	-11.5991
▁loses	-11.5994
▁glaze	-11.5995
▁concentrate	-11.5995
▁crave	-11.5999
▁stab	-11.6001
▁desired	-11.6002
▁bard	-11.6008
▁peak	-11.6008
▁lodge	-11.6011
boat	-11.6011
▁heaps	-11.6014
▁mortar	-11.6016
▁therein	-11.6017
pale	-11.6017
▁situation	-11.6019
▁courtyard	-11.602
▁occur	-11.6021
▁ornament	-11.6022
▁notebook	-11.6022
▁kite	-11.6023
▁shots	-11.6023
▁standard	-11.6024
▁thicket	-11.6027
▁wee	-11.6028
▁snail	-11.603
ask	-11.6031
▁bout	-11.6032
▁oranges	-11.6034
▁14	-11.6035
▁oar	-11.6038
▁afterward	-11.6038
▁newborn	-11.6042
▁conquer	-11.6048
mine	-11.6049
▁tour	-11.6049
▁rut	-11.6054
▁tra	-11.6057
▁convey	-11.6063
▁nick	-11.6065
▁chart	-11.6073
holes	-11.6075
▁tulip	-11.6078
—"	-11.6079
▁gender	-11.6082
▁carbon	-11.6088
▁teenage	-11.6088
▁dainty	-11.6088
▁foliage	-11.6088
▁magnolia	-11.6088
▁refrain	-11.6088
▁cosmos	-11.6088
▁isolation	-11.6088
▁terminal	-11.6088
▁etched	-11.6088
▁cot	-11.6088
▁yarrow	-11.6088
▁permission	-11.6088
▁tennis	-11.6088
▁property	-11.6088
▁available	-11.6089
▁lucy	-11.6089
▁unique	-11.6089
▁boundary	-11.609
▁scalp	-11.609
tops	-11.609
▁mosquitoes	-11.6091
▁literally	-11.6093
sure	-11.6093
▁boundaries	-11.6093
▁pizza	-11.6094
▁canoe	-11.6094
▁occasionally	-11.6094
▁prose	-11.6095
▁earned	-11.6098
▁unclean	-11.6098
▁underfoot	-11.6102
▁nightfall	-11.6102
▁coiled	-11.6104
▁blight	-11.6104
▁matches	-11.6107
ise	-11.6108
▁daffodils	-11.6113
▁losses	-11.6114
▁worker	-11.6117
▁matte	-11.6117
should	-11.6118
▁shrinking	-11.612
▁stride	-11.6121
▁naturally	-11.6123
▁satisfaction	-11.6124
▁dunes	-11.6125
▁wider	-11.6129
▁crashing	-11.6129
▁yields	-11.613
▁rented	-11.6131
▁deserts	-11.6134
▁likewise	-11.6135
thin	-11.6135
▁illness	-11.6138
▁hoop	-11.6138
▁dipped	-11.6143
▁cube	-11.6143
▁pillars	-11.6144
▁builds	-11.6148
▁checked	-11.6148
▁widows	-11.6156
▁softer	-11.6164
▁sundays	-11.6164
▁blossoming	-11.6169
▁quest	-11.6169
cor	-11.6171
▁sleepers	-11.6173
▁limited	-11.6175
▁reap	-11.618
▁vivid	-11.6184
▁coy	-11.6184
ens	-11.6186
▁precision	-11.6189
▁amazing	-11.6189
▁british	-11.6189
▁malice	-11.6189
▁turtles	-11.6192
▁freight	-11.6192
▁brooks	-11.6193
▁rum	-11.6196
▁lingers	-11.6196
▁rapt	-11.6197
chu	-11.6199
▁reel	-11.62
▁flares	-11.6203
▁mists	-11.6203
ev	-11.6203
▁rifles	-11.6204
▁creaking	-11.621
▁fights	-11.6212
broken	-11.6218
whether	-11.6219
▁notion	-11.622
▁crashed	-11.6224
▁tigers	-11.6225
slow	-11.6227
bells	-11.6228
▁rounds	-11.623
▁owner	-11.6233
ium	-11.6234
▁stinking	-11.6237
▁isle	-11.624
▁sketch	-11.6241
▁panes	-11.6241
built	-11.6242
▁airs	-11.6247
▁scented	-11.6248
▁40	-11.6249
val	-11.6249
▁hir	-11.6249
▁emotion	-11.625
▁oyster	-11.6252
▁sucks	-11.6253
▁joseph	-11.6255
part	-11.6269
▁allows	-11.627
▁pork	-11.6274
ware	-11.6276
▁overcome	-11.628
▁portrait	-11.6281
▁lass	-11.6288
fear	-11.6292
▁nods	-11.6295
▁disturb	-11.6295
▁je	-11.6306
ld	-11.6309
▁foil	-11.6312
▁silences	-11.6314
▁plague	-11.6315
▁gutter	-11.6318
▁tipped	-11.632
▁gloss	-11.632
▁recess	-11.6323
▁rapid	-11.6326
▁prints	-11.6327
▁bower	-11.6328
▁ge	-11.6331
▁meteor	-11.6331
▁lichen	-11.6332
▁spade	-11.6335
▁girlfriend	-11.6335
▁ban	-11.6338
▁jumps	-11.6342
▁lore	-11.6349
▁employ	-11.6349
▁impression	-11.635
▁crater	-11.6351
▁phrases	-11.6351
▁pauses	-11.6352
liness	-11.6356
▁heartbeat	-11.6365
▁verb	-11.6369
▁straining	-11.6372
▁languish	-11.6372
▁kindle	-11.6374
▁replace	-11.6378
▁aye	-11.6378
ky	-11.6381
▁jade	-11.6386
har	-11.6387
▁reckless	-11.6391
▁speckled	-11.6391
▁gonn	-11.6392
▁sewn	-11.6393
▁access	-11.64
▁tortoise	-11.64
▁comprehend	-11.64
▁identify	-11.64
▁jerusalem	-11.64
▁pudding	-11.64
▁syntax	-11.64
▁unbearable	-11.64
▁japan	-11.64
▁communion	-11.64
▁purity	-11.6401
▁simplicity	-11.6401
▁vacation	-11.6401
▁moisture	-11.6401
▁performance	-11.6401
▁bacon	-11.6401
▁tracing	-11.6401
▁begged	-11.6401
▁glee	-11.6401
▁arabic	-11.6401
▁holly	-11.6402
▁earliest	-11.6402
▁arctic	-11.6402
▁fireworks	-11.6403
▁guiding	-11.6405
▁mike	-11.6407
▁hideous	-11.6408
▁pelt	-11.6409
▁vile	-11.6409
▁florida	-11.6412
▁loveliness	-11.6413
▁daybreak	-11.6413
▁cared	-11.6414
▁absolutely	-11.6415
▁rafters	-11.6415
▁retired	-11.6416
▁para	-11.6416
▁chewed	-11.6419
▁braided	-11.6421
▁itch	-11.6421
▁translate	-11.6422
▁uneven	-11.6423
▁firing	-11.6426
▁miser	-11.6427
▁yelling	-11.6429
▁departed	-11.6431
▁miraculous	-11.6431
▁shutters	-11.6436
▁bugles	-11.6437
▁pupils	-11.6437
▁descended	-11.6437
▁flu	-11.6437
▁cents	-11.6438
▁companions	-11.6438
▁exploding	-11.6438
▁heather	-11.6438
▁turquoise	-11.6438
▁dictionary	-11.6438
▁column	-11.6439
▁suburban	-11.6439
▁bursts	-11.644
▁brilliance	-11.644
▁beheld	-11.6441
▁sped	-11.6442
▁approached	-11.6444
▁clot	-11.6446
fed	-11.6448
▁afloat	-11.6452
▁nuns	-11.6454
▁gross	-11.6454
▁moaning	-11.6457
▁vainly	-11.6459
▁plume	-11.646
▁spared	-11.6462
▁gutters	-11.6466
▁papa	-11.6467
▁hen	-11.6467
▁alice	-11.647
▁whore	-11.647
▁carve	-11.6475
▁elder	-11.6477
cast	-11.6478
▁links	-11.6483
▁relax	-11.6483
▁stumps	-11.6489
▁jobs	-11.6491
▁atoms	-11.6492
▁victims	-11.6493
▁horizons	-11.6494
▁washes	-11.6496
ible	-11.6496
▁dia	-11.6497
▁fiction	-11.65
▁trickle	-11.6502
▁sadly	-11.6502
▁tint	-11.6504
▁grazing	-11.6504
▁silt	-11.6505
▁gilded	-11.651
▁dominion	-11.6513
▁lizard	-11.6514
▁ding	-11.6518
▁officer	-11.6519
▁sweets	-11.652
care	-11.6521
▁fin	-11.6522
▁tavern	-11.6524
▁burnished	-11.6525
▁sticking	-11.6526
▁gar	-11.6527
ado	-11.6532
▁ebb	-11.6532
▁buying	-11.6535
▁acting	-11.6536
▁restored	-11.6536
▁stored	-11.6539
▁lengthen	-11.6539
▁clings	-11.654
▁plush	-11.6543
▁cooking	-11.6544
body	-11.6551
cha	-11.6552
▁poke	-11.6554
ets	-11.656
ering	-11.656
▁clap	-11.6561
▁30	-11.6561
▁closely	-11.6563
▁doorways	-11.657
▁scan	-11.6574
▁erotic	-11.6575
kind	-11.6576
▁bereft	-11.6579
▁lucid	-11.6579
▁dresser	-11.6581
beat	-11.6582
▁wha	-11.6583
leaf	-11.6586
▁5.	-11.6587
pl	-11.6587
tone	-11.6592
▁wanders	-11.6593
▁assured	-11.6593
▁appropriate	-11.6599
eg	-11.6602
heavy	-11.6605
might	-11.6606
both	-11.6607
▁cor	-11.6608
▁slop	-11.6608
▁leash	-11.6611
py	-11.6613
although	-11.6617
▁noses	-11.6623
▁chisel	-11.6624
▁sells	-11.6625
put	-11.6632
cloth	-11.6635
▁survey	-11.6636
produced	-11.6636
▁retire	-11.6636
▁singers	-11.6638
▁ripple	-11.6642
▁clan	-11.6643
▁rotted	-11.6644
”?	-11.6644
▁heath	-11.6645
▁sock	-11.6646
▁patt	-11.6646
scape	-11.6652
▁cunt	-11.6653
▁helping	-11.6654
▁memorial	-11.6655
him	-11.6656
▁cowboy	-11.6656
▁clue	-11.6657
▁cabinet	-11.6657
▁sonnet	-11.6659
▁billion	-11.6659
know	-11.6659
▁beggar	-11.6661
▁visits	-11.6666
▁partner	-11.6676
dry	-11.6679
▁recover	-11.6679
▁nut	-11.668
piece	-11.6682
dee	-11.6684
▁hare	-11.6686
▁belonging	-11.6691
zo	-11.6693
size	-11.6695
.2	-11.6699
▁bust	-11.6699
▁muck	-11.6706
uc	-11.6706
▁dutch	-11.6712
▁sleigh	-11.6713
▁whipped	-11.6714
▁furrow	-11.6716
▁grate	-11.6717
▁temper	-11.6717
▁sup	-11.6718
▁gear	-11.6718
▁roost	-11.6719
▁catholic	-11.6723
▁ceremony	-11.6723
▁smoky	-11.6723
▁supply	-11.6723
▁temporary	-11.6723
▁terrific	-11.6723
▁average	-11.6723
▁clenched	-11.6723
▁indigo	-11.6723
▁sleet	-11.6723
▁spleen	-11.6723
▁gilt	-11.6723
▁fishermen	-11.6723
▁grandeur	-11.6723
▁ireland	-11.6724
▁majority	-11.6724
▁astonished	-11.6724
haw	-11.6725
▁separation	-11.6725
▁jagged	-11.6725
▁naming	-11.6725
▁absorbed	-11.6726
hoo	-11.6726
▁unbroken	-11.6727
▁tiptoe	-11.6728
▁tractor	-11.6728
▁eighth	-11.6728
▁assembled	-11.6729
▁leader	-11.6729
▁indifference	-11.6731
▁involved	-11.6731
▁bewildered	-11.6732
▁peaches	-11.6734
▁pleasing	-11.6735
▁arches	-11.6737
▁alter	-11.6737
▁bitterness	-11.6737
▁frayed	-11.6738
▁wavering	-11.6741
▁fronds	-11.6741
▁gong	-11.6743
▁healthy	-11.6743
▁seized	-11.6745
▁firmly	-11.6746
▁pinched	-11.6747
▁stalled	-11.6748
▁rape	-11.6754
▁frosty	-11.6758
▁mosquito	-11.6761
▁compassion	-11.6762
▁francisco	-11.6762
▁ripen	-11.6763
▁crane	-11.6765
▁verge	-11.6766
▁prop	-11.6767
▁reins	-11.6772
▁fantastic	-11.6777
ku	-11.6781
▁mayst	-11.6785
▁hart	-11.6789
▁coils	-11.6789
▁goods	-11.6792
▁stormy	-11.6794
ef	-11.6794
▁plumes	-11.6799
▁banners	-11.6804
▁splits	-11.6805
▁sch	-11.6806
▁groans	-11.6808
▁mam	-11.6811
▁taps	-11.6813
form	-11.6813
▁ravine	-11.6815
ered	-11.6821
▁bulbs	-11.6821
▁chord	-11.6825
▁tempt	-11.6825
round	-11.683
▁tension	-11.683
▁strawberry	-11.6831
▁magazines	-11.6832
▁suffice	-11.6834
▁nude	-11.6836
▁bolts	-11.6837
▁sandy	-11.6838
▁skyline	-11.6848
▁anna	-11.6851
move	-11.6851
▁monuments	-11.6855
▁aimed	-11.6856
▁buys	-11.6857
▁slay	-11.686
▁smokes	-11.6864
lar	-11.6866
▁orchids	-11.6866
▁pastures	-11.6871
▁bum	-11.6872
keep	-11.6874
▁griefs	-11.6889
mar	-11.6893
▁rocket	-11.6896
▁grunt	-11.6903
edge	-11.6904
▁thud	-11.6908
▁readers	-11.6912
▁snare	-11.6919
other	-11.6924
▁beginnings	-11.693
▁coil	-11.6932
▁lizards	-11.6936
▁killer	-11.6938
▁avenues	-11.6943
hy	-11.6946
sol	-11.6948
▁margin	-11.6949
▁mistakes	-11.6952
▁pas	-11.6964
▁groove	-11.6965
grown	-11.6969
▁provide	-11.6969
▁cleaned	-11.6972
holding	-11.6975
▁moor	-11.6976
watch	-11.6977
▁sunken	-11.6979
▁crystals	-11.698
▁plank	-11.6987
▁chariot	-11.6987
▁carpenter	-11.6989
▁casket	-11.6989
▁relation	-11.699
coming	-11.699
▁explosion	-11.699
▁banana	-11.6991
▁result	-11.6991
words	-11.6993
earth	-11.6995
▁adorn	-11.6997
▁sunflower	-11.6998
school	-11.6998
▁sways	-11.7002
des	-11.7004
next	-11.7005
▁lame	-11.7006
tie	-11.7008
▁certainty	-11.701
almost	-11.7012
pity	-11.7018
▁flights	-11.7021
▁warmed	-11.7023
▁ni	-11.7024
▁scratching	-11.7025
shine	-11.7033
ched	-11.7042
▁maria	-11.7043
oz	-11.7044
▁webs	-11.7047
watt	-11.7047
▁leisure	-11.7049
ras	-11.705
▁urgent	-11.705
ko	-11.7052
dis	-11.7054
going	-11.7055
▁studio	-11.7055
▁beech	-11.7056
▁yarn	-11.7056
▁accurate	-11.7056
▁celebration	-11.7056
▁desolation	-11.7056
▁festival	-11.7056
▁sabbath	-11.7056
▁license	-11.7056
▁floorboards	-11.7056
▁glancing	-11.7056
▁gigantic	-11.7056
▁slammed	-11.7056
▁latter	-11.7056
▁potential	-11.7057
▁guile	-11.7057
▁vest	-11.7057
▁mantle	-11.7057
▁puer	-11.7057
▁ponds	-11.7057
▁tapping	-11.7057
▁mortis	-11.7058
▁slapping	-11.7058
▁steadily	-11.7059
▁coke	-11.706
▁preferred	-11.7064
▁ample	-11.7064
▁stout	-11.7064
▁elderly	-11.7064
later	-11.7064
▁players	-11.7065
ore	-11.7066
▁overgrown	-11.7067
▁totally	-11.7068
▁anvil	-11.707
▁pea	-11.707
▁transformed	-11.7072
▁evermore	-11.7073
▁softened	-11.7077
▁almighty	-11.7077
▁brushes	-11.7077
▁slaughtered	-11.7081
▁yelled	-11.7082
▁tighter	-11.7082
▁plunged	-11.7082
▁difficulty	-11.7086
pink	-11.7088
▁particles	-11.7089
▁wrecked	-11.709
▁rattled	-11.7092
thought	-11.7093
▁neighbours	-11.7093
▁hooded	-11.7094
▁sifting	-11.7094
▁fingernails	-11.7095
▁bridegroom	-11.7097
▁sponge	-11.7099
▁gem	-11.71
▁traveller	-11.71
▁troops	-11.7101
▁adult	-11.7102
▁enjoyed	-11.7108
▁sweaty	-11.7108
wow	-11.7108
▁proudly	-11.711
▁hind	-11.7113
inch	-11.7118
du	-11.7119
▁cured	-11.712
▁planks	-11.7123
times	-11.7125
▁ant	-11.7127
▁chilled	-11.7128
▁angelic	-11.7129
▁vegetables	-11.7131
▁garlands	-11.7132
▁inn	-11.7134
▁caw	-11.7136
mail	-11.7137
▁greeting	-11.714
▁soiled	-11.7142
▁pilgrims	-11.7142
▁darkens	-11.7144
:“	-11.7146
▁puddles	-11.7147
gold	-11.7148
ker	-11.715
▁rash	-11.7154
bin	-11.7157
▁seeks	-11.7157
▁conduct	-11.716
▁motions	-11.7163
und	-11.7163
tat	-11.7164
▁convert	-11.7167
▁sharing	-11.7168
▁grieving	-11.7168
▁sodden	-11.7168
hour	-11.717
▁affections	-11.7172
▁lawyer	-11.7174
▁syllable	-11.7175
▁learns	-11.7175
▁traps	-11.7177
▁explore	-11.7188
bell	-11.719
)—	-11.7202
▁hovers	-11.7203
gi	-11.7205
▁cycle	-11.7205
▁gaps	-11.721
▁sustain	-11.7213
▁eagles	-11.7214
rap	-11.723
▁quality	-11.7233
▁snaps	-11.7234
pin	-11.7239
▁shocked	-11.7241
▁plots	-11.7243
bid	-11.7243
10	-11.7244
state	-11.7245
▁ode	-11.7247
▁deepening	-11.7248
▁chop	-11.7249
▁forks	-11.7256
▁burrow	-11.7256
▁drama	-11.7261
▁ax	-11.7262
▁collapsed	-11.7263
▁dame	-11.7266
live	-11.7271
▁inland	-11.7274
▁healed	-11.7276
▁ja	-11.7282
▁bulls	-11.7283
▁ph	-11.729
ane	-11.7294
▁yoke	-11.7294
▁method	-11.7296
▁serves	-11.7299
▁wade	-11.7303
▁league	-11.7308
▁packs	-11.7309
ney	-11.731
▁encounter	-11.7314
▁rhythms	-11.7316
▁thrive	-11.7319
minded	-11.732
▁barns	-11.7327
▁tang	-11.7328
▁refrigerator	-11.7331
▁mirage	-11.7331
▁soften	-11.7332
▁tribute	-11.7333
▁suitcase	-11.7334
▁captive	-11.7334
▁nickel	-11.7334
▁whim	-11.7334
cur	-11.7335
▁poplar	-11.7335
▁bramble	-11.7335
▁aisle	-11.7336
▁garment	-11.7336
▁locust	-11.7337
▁purchase	-11.7338
▁consumed	-11.7342
lier	-11.7345
▁pitcher	-11.7346
▁melon	-11.7346
ata	-11.7349
▁expert	-11.735
mm	-11.735
▁sailor	-11.7351
▁tortured	-11.7352
▁stroll	-11.7353
▁trot	-11.7353
▁thereby	-11.7354
human	-11.7355
▁actor	-11.7359
illa	-11.7361
▁widen	-11.7365
▁hearse	-11.737
▁earthquake	-11.7375
girl	-11.7376
▁silhouette	-11.7376
▁flowered	-11.7377
▁arrest	-11.7384
▁confuse	-11.7386
▁quake	-11.7386
nna	-11.7387
guided	-11.739
▁project	-11.7391
▁mayor	-11.7392
▁lavish	-11.7392
▁mutual	-11.7394
▁bulk	-11.7394
▁broth	-11.7396
▁occasional	-11.7399
▁partial	-11.7399
▁plead	-11.7401
▁ambulance	-11.7401
▁bulging	-11.7401
▁cicadas	-11.7401
▁circular	-11.7401
▁conturba	-11.7401
▁disbelief	-11.7401
▁drowsy	-11.7401
▁flimsy	-11.7401
▁geometry	-11.7401
▁literature	-11.7401
▁loaves	-11.7401
▁quarry	-11.7401
▁splendour	-11.7401
▁opportunity	-11.7401
▁savior	-11.7401
▁flannel	-11.7401
▁nudge	-11.7401
▁brazen	-11.7401
▁smolder	-11.7401
▁tasting	-11.7401
▁nursing	-11.7401
▁greece	-11.7401
▁finite	-11.7401
▁golf	-11.7401
▁consent	-11.7401
style	-11.7402
▁petty	-11.7402
▁lounge	-11.7403
▁wallpaper	-11.7403
▁murderous	-11.7403
▁timor	-11.7403
▁complicated	-11.7403
▁propped	-11.7403
▁sagging	-11.7404
▁axis	-11.7405
▁farmhouse	-11.7406
▁crippled	-11.7406
▁walt	-11.7407
▁stitches	-11.7408
▁smudge	-11.7408
▁apply	-11.7411
▁countryside	-11.7412
▁selfish	-11.7413
▁upturned	-11.7415
gen	-11.7415
▁deity	-11.7415
▁shaved	-11.7416
▁gentleman	-11.7417
twas	-11.7418
▁sever	-11.7418
▁sixth	-11.7419
nic	-11.7419
▁mechanical	-11.7421
▁germany	-11.7423
▁invited	-11.7424
▁offend	-11.7425
outside	-11.7425
▁mines	-11.7426
breath	-11.7426
bones	-11.7427
▁twitching	-11.7427
ct	-11.7428
▁shotgun	-11.7432
▁aura	-11.7432
▁ablaze	-11.7434
▁distinct	-11.7435
thick	-11.7435
▁finest	-11.7441
▁slippers	-11.7442
▁grotesque	-11.7445
▁sundown	-11.7447
▁handkerchief	-11.7447
▁bastard	-11.7448
15	-11.745
▁grasshoppers	-11.7451
▁scattering	-11.7451
pan	-11.7451
▁swirl	-11.7452
▁tightly	-11.7454
▁vote	-11.7455
▁yew	-11.7461
▁bathing	-11.7463
▁tenderly	-11.7463
▁thrice	-11.7465
▁boarded	-11.7466
▁choices	-11.7467
▁truths	-11.7468
▁actors	-11.7468
▁leaped	-11.7472
▁cones	-11.7473
bag	-11.7475
▁goddamn	-11.7479
▁checking	-11.7481
▁cuckoo	-11.7482
▁adrift	-11.7483
fight	-11.7484
▁marking	-11.7484
▁streaked	-11.7489
▁atom	-11.749
▁clothed	-11.7491
fo	-11.7493
ann	-11.7493
▁depends	-11.7494
▁mills	-11.7494
table	-11.7497
coloured	-11.7498
▁hollows	-11.7498
▁receives	-11.7507
▁wayward	-11.7509
▁ultimate	-11.7509
▁fickle	-11.7516
▁geography	-11.7517
▁climate	-11.7521
▁quilt	-11.7524
▁glowed	-11.7534
▁jo	-11.7539
▁rugs	-11.7539
phone	-11.7542
▁dissolves	-11.7547
▁peril	-11.7551
▁shallows	-11.7569
▁reveals	-11.758
▁aunts	-11.758
▁ca	-11.7581
▁deliberate	-11.7585
▁su	-11.7585
▁extinct	-11.7589
▁chip	-11.7591
aunt	-11.7596
bas	-11.7598
▁squirrels	-11.7599
▁praised	-11.7607
▁rind	-11.7607
ec	-11.7609
len	-11.7609
▁moans	-11.7612
▁summoned	-11.7614
▁aught	-11.7619
▁quarters	-11.7619
any	-11.7621
▁glade	-11.7621
▁knuckle	-11.7626
▁yeah	-11.7626
▁cooled	-11.7627
▁meals	-11.763
▁soles	-11.7631
▁carp	-11.7633
▁gowns	-11.7634
▁coals	-11.7634
▁moods	-11.7637
▁virgins	-11.7639
▁cameras	-11.7644
▁shatter	-11.7645
uch	-11.7649
hon	-11.7652
▁sans	-11.7664
▁fowl	-11.7666
▁stanza	-11.7671
▁resolve	-11.7674
bee	-11.7674
▁steak	-11.7675
▁12	-11.7676
rich	-11.7677
sir	-11.7678
▁invade	-11.7685
▁caesar	-11.7688
▁disappointment	-11.7689
▁cocktail	-11.7689
▁snout	-11.769
▁migration	-11.769
▁waiter	-11.7692
▁dandelion	-11.7692
▁messenger	-11.7692
▁comrade	-11.7693
▁passenger	-11.7693
tch	-11.7693
▁courts	-11.7697
▁mineral	-11.7699
▁ol	-11.7702
tam	-11.7707
sta	-11.7707
▁scare	-11.7709
sleep	-11.7709
▁orbit	-11.7711
▁conjure	-11.7721
);	-11.7723
):	-11.7727
▁wrestle	-11.7728
things	-11.7731
▁journeys	-11.7732
▁feign	-11.774
gun	-11.7742
▁dismay	-11.7742
▁pledge	-11.7742
▁shuffle	-11.7742
▁disable	-11.7746
▁ferns	-11.7748
▁steadfast	-11.7751
▁collective	-11.7753
▁ba	-11.7753
▁micro	-11.7754
▁knit	-11.7755
▁froze	-11.7756
▁aloof	-11.7757
chi	-11.7757
▁egypt	-11.7758
▁sovereign	-11.7758
▁abraham	-11.7758
▁ancestral	-11.7758
▁artificial	-11.7758
▁countenance	-11.7758
▁district	-11.7758
▁expense	-11.7758
▁fancies	-11.7758
▁honeysuckle	-11.7758
▁hudson	-11.7758
▁insurance	-11.7758
▁lobby	-11.7758
▁ostrich	-11.7758
▁impact	-11.7758
▁eyelashes	-11.7758
▁thanksgiving	-11.7758
▁persistent	-11.7759
▁altogether	-11.7759
▁advancing	-11.7759
▁moose	-11.7759
▁wreckage	-11.7759
▁mercury	-11.776
▁gaudy	-11.776
▁resurrection	-11.776
walking	-11.776
▁yael	-11.7761
▁spake	-11.7761
master	-11.7761
▁fray	-11.7762
▁downstairs	-11.7762
▁dreary	-11.7763
▁strapped	-11.7764
▁foreheads	-11.7765
▁splitting	-11.7766
▁adolescent	-11.7768
▁underworld	-11.7769
▁rouse	-11.7769
▁anthem	-11.7769
▁chess	-11.7769
▁israel	-11.777
▁bland	-11.777
▁clash	-11.777
▁birdsong	-11.7771
▁shuts	-11.7772
▁cherished	-11.7773
▁spain	-11.7773
destined	-11.7774
▁fangs	-11.7776
▁presses	-11.7776
book	-11.7777
▁kindred	-11.7778
▁divorced	-11.7779
▁historical	-11.778
▁masses	-11.7782
▁linked	-11.7783
▁whereas	-11.7785
▁handles	-11.7788
▁rev	-11.7789
▁chilly	-11.7789
▁infinitely	-11.779
▁200	-11.779
▁oddly	-11.7791
▁mocking	-11.7792
ith	-11.7796
▁forgiven	-11.7797
▁shave	-11.78
▁mane	-11.7801
▁swagger	-11.7802
▁pumping	-11.7803
▁vowels	-11.7805
▁appeal	-11.7809
▁strained	-11.7811
▁pillar	-11.7812
tric	-11.7813
▁sentimental	-11.7815
spring	-11.7818
▁beau	-11.7819
ked	-11.782
fashioned	-11.782
▁recorded	-11.7821
▁relatives	-11.7822
▁comrades	-11.7824
▁results	-11.7829
▁chords	-11.7832
▁sonnets	-11.7832
▁bishop	-11.7833
clean	-11.7834
▁furrows	-11.7834
fold	-11.7834
▁richard	-11.7835
▁bash	-11.7836
▁ravens	-11.7838
▁separated	-11.7839
▁adding	-11.784
▁contented	-11.7844
much	-11.7846
struck	-11.7849
▁symbols	-11.7849
▁fewer	-11.785
▁clusters	-11.7851
true	-11.7852
▁garlic	-11.7852
yellow	-11.7854
▁dips	-11.7854
morning	-11.7854
▁stamps	-11.7854
standing	-11.7856
▁popp	-11.7856
tract	-11.7856
▁howls	-11.7858
▁peers	-11.7859
▁weighs	-11.7861
running	-11.7865
▁blindly	-11.7868
painted	-11.7868
ette	-11.7872
▁dwells	-11.7872
ita	-11.7874
▁figured	-11.7876
▁languid	-11.7878
▁eros	-11.7879
stra	-11.7879
▁blackbirds	-11.7879
▁baffled	-11.788
▁prone	-11.788
glo	-11.7883
▁11	-11.789
shadow	-11.7891
▁whores	-11.7892
▁monkeys	-11.7892
bottom	-11.7892
▁veer	-11.7897
▁disturbed	-11.7898
lies	-11.7898
▁disguised	-11.79
▁instantly	-11.7907
▁pumps	-11.7909
ack	-11.7913
pur	-11.7922
▁perfumed	-11.7922
▁stooped	-11.7923
▁vii	-11.7924
▁nesting	-11.7926
▁produce	-11.7927
▁nobler	-11.7928
▁tee	-11.7932
▁orb	-11.7933
▁ranks	-11.7941
ante	-11.7949
▁enchantment	-11.7951
▁hens	-11.7952
▁kicks	-11.7956
▁trump	-11.7956
▁occurs	-11.7957
gre	-11.7958
▁weaves	-11.7966
▁possession	-11.7969
▁repeats	-11.7975
▁upset	-11.7983
▁clippe	-11.7983
▁slung	-11.7984
logged	-11.7987
▁appearance	-11.7987
▁seemd	-11.7992
▁determined	-11.7995
▁pans	-11.7995
cry	-11.7996
▁flavor	-11.7996
▁oils	-11.8
▁redeem	-11.8003
use	-11.8005
▁graft	-11.8005
▁dyed	-11.801
▁rob	-11.8018
▁tubes	-11.8019
▁ape	-11.802
rt	-11.8022
ow	-11.8027
▁wag	-11.8034
▁trained	-11.8034
▁beauteous	-11.8036
▁thomas	-11.8036
▁sash	-11.8037
▁subjects	-11.8037
▁checks	-11.8039
▁stomp	-11.8039
▁lain	-11.8042
▁yawn	-11.8043
▁monk	-11.8044
▁flaw	-11.8044
▁glisten	-11.8045
▁blouse	-11.8046
▁filter	-11.8046
▁gi	-11.8048
▁lively	-11.8048
roll	-11.8051
▁explains	-11.8055
▁funnel	-11.8059
▁intellectual	-11.8059
mer	-11.8059
▁walnut	-11.806
tinted	-11.8061
▁blizzard	-11.8061
▁timber	-11.8061
din	-11.8061
▁punishment	-11.8062
▁crayon	-11.8062
▁pumpkin	-11.8062
▁parrot	-11.8063
▁boyfriend	-11.8063
▁nipple	-11.8064
▁relative	-11.8065
▁knight	-11.8065
▁inscribed	-11.8068
▁hums	-11.8068
oer	-11.807
ches	-11.8072
arm	-11.8073
▁foundation	-11.8074
▁guardian	-11.8075
ending	-11.8076
test	-11.8079
▁cleaning	-11.808
▁ali	-11.8082
dom	-11.8082
▁official	-11.8084
forth	-11.8085
▁keeper	-11.8087
▁felled	-11.8091
▁reluctant	-11.8096
term	-11.8097
▁tart	-11.8099
▁avail	-11.811
▁transform	-11.8111
▁compound	-11.8111
▁skim	-11.8111
▁twinkle	-11.8112
hen	-11.8112
▁loosen	-11.8114
▁fuse	-11.8116
▁chat	-11.8117
▁wrench	-11.8117
▁latch	-11.8121
▁genuine	-11.8121
▁gallant	-11.8121
▁haunts	-11.8122
▁vulgar	-11.8128
▁gaunt	-11.8129
▁appreciate	-11.8129
▁elaborate	-11.8129
▁fertile	-11.8129
▁ghastly	-11.8129
▁strove	-11.8129
▁downpour	-11.8129
▁enamel	-11.8129
▁nostalgia	-11.8129
▁scandal	-11.8129
▁cosmic	-11.8129
▁excitement	-11.8129
▁variety	-11.8129
▁mottled	-11.8129
▁scramble	-11.8129
▁ardent	-11.8129
▁cancel	-11.8129
▁rosary	-11.8129
▁console	-11.8129
▁moses	-11.8129
▁timid	-11.8129
▁fluent	-11.8129
▁sipping	-11.8129
▁racket	-11.8129
▁surgery	-11.8129
▁via	-11.8129
▁pallid	-11.8129
▁fantasy	-11.813
▁unnatural	-11.813
▁wield	-11.813
▁shredded	-11.813
fa	-11.813
▁veiled	-11.813
▁whirlwind	-11.813
▁sensible	-11.813
▁pious	-11.8131
▁pacing	-11.8131
▁corruption	-11.8131
▁extract	-11.8133
▁sod	-11.8133
atop	-11.8133
▁gentlemen	-11.8135
▁fireplace	-11.8136
▁torches	-11.8137
▁slic	-11.8138
▁downhill	-11.8138
▁interrupted	-11.8139
▁policeman	-11.8139
▁approaches	-11.8139
▁dares	-11.814
marks	-11.8141
▁mast	-11.8141
▁neglected	-11.8143
▁moonlit	-11.8146
▁defined	-11.8146
▁popped	-11.8147
del	-11.815
▁maggots	-11.815
▁daring	-11.8151
▁puzzled	-11.8151
▁emerged	-11.8152
▁gym	-11.8153
▁concealed	-11.8154
▁oats	-11.8157
▁heft	-11.8158
▁groaning	-11.8158
▁banging	-11.8161
▁clasped	-11.8163
▁beaches	-11.8164
hath	-11.8167
▁hauled	-11.8167
▁tranquil	-11.8167
ik	-11.8168
▁warp	-11.8172
rie	-11.8172
▁cinnamon	-11.8174
▁oblivious	-11.8174
▁oneself	-11.8174
▁belonged	-11.8178
▁brooding	-11.8178
▁hammered	-11.8182
▁roaming	-11.8182
▁accepted	-11.8183
mic	-11.8185
▁protected	-11.8186
▁circumstance	-11.8186
▁cocked	-11.8192
▁screw	-11.8202
▁plainly	-11.8202
▁snails	-11.8204
▁hurrying	-11.8206
▁witnessed	-11.8208
▁oysters	-11.821
ads	-11.8216
▁lied	-11.8217
▁crabs	-11.8219
▁sewer	-11.8222
▁ashore	-11.8223
▁studying	-11.8225
▁nightgown	-11.8229
▁ruddy	-11.8229
▁scroll	-11.823
▁swallowing	-11.8232
stop	-11.8233
▁spending	-11.8236
▁solace	-11.8237
▁stilled	-11.8238
▁stalls	-11.824
▁belle	-11.8241
11	-11.8242
▁lacking	-11.8248
▁looms	-11.825
skinned	-11.8252
▁popular	-11.8253
rock	-11.8253
▁muscular	-11.8253
▁sheath	-11.8254
▁regrets	-11.8257
▁hells	-11.8263
▁bucks	-11.8265
tons	-11.8265
▁signature	-11.8266
remember	-11.8268
▁clip	-11.8268
▁commit	-11.8273
▁hedges	-11.8277
▁vessels	-11.8277
▁creeps	-11.8278
ral	-11.828
wall	-11.8283
weight	-11.8283
ters	-11.8285
also	-11.8287
ace	-11.8288
written	-11.8289
▁appearing	-11.829
▁har	-11.8291
▁races	-11.8291
▁100	-11.8291
rite	-11.8296
ical	-11.8297
ger	-11.8298
▁diseases	-11.8306
strong	-11.8308
beyond	-11.8311
▁partly	-11.8312
▁gan	-11.8316
▁punish	-11.8317
▁sacks	-11.8318
phon	-11.8318
▁thru	-11.8327
conscious	-11.8327
▁poster	-11.8327
ris	-11.8329
ded	-11.8329
tide	-11.8332
▁rumbling	-11.8333
▁conclusion	-11.8335
▁crank	-11.8335
touch	-11.8337
▁herald	-11.8337
▁trespass	-11.8339
▁brightly	-11.8342
▁laced	-11.8346
▁til	-11.8347
▁pencils	-11.8348
▁gre	-11.835
hat	-11.835
known	-11.8355
▁glides	-11.8355
▁crimes	-11.8358
▁maids	-11.8359
▁maw	-11.836
▁jackets	-11.8361
▁whites	-11.8368
▁struggles	-11.8371
wi	-11.8374
▁tradition	-11.8382
▁owns	-11.8382
▁aids	-11.8382
ably	-11.8384
▁dreamy	-11.8384
press	-11.8387
▁nun	-11.8387
▁player	-11.8388
spread	-11.839
read	-11.8397
▁cr	-11.8399
▁entertain	-11.8399
▁jerk	-11.8406
▁lapping	-11.8409
▁render	-11.841
▁clouded	-11.8416
backed	-11.8416
▁drowns	-11.8419
▁squeak	-11.8423
ways	-11.8425
▁curses	-11.8426
▁fatigue	-11.8427
▁mattered	-11.843
▁spiked	-11.8433
▁rave	-11.8434
want	-11.8436
▁glob	-11.8437
▁sharks	-11.8442
ribal	-11.8443
▁sausage	-11.8444
▁freak	-11.8444
▁routine	-11.8444
▁theatre	-11.8445
▁decade	-11.8445
▁division	-11.8445
▁contemplate	-11.8446
▁spout	-11.8446
▁bluff	-11.8446
▁chasm	-11.8446
▁solution	-11.8446
▁labyrinth	-11.8446
▁cinder	-11.8447
▁airplane	-11.8448
▁socket	-11.8448
▁mower	-11.8449
22	-11.845
▁gorge	-11.845
▁steed	-11.845
▁combine	-11.8451
▁bra	-11.8452
lane	-11.8456
▁pickup	-11.8457
▁alexander	-11.8459
▁wid	-11.8462
izing	-11.8464
ence	-11.8466
▁bre	-11.847
ula	-11.8471
▁slash	-11.8472
▁bleach	-11.8475
▁swoon	-11.8475
shirts	-11.8475
▁jean	-11.8476
▁absorb	-11.8476
▁previous	-11.8477
fur	-11.8477
▁swish	-11.8483
▁berry	-11.8486
▁demons	-11.8489
▁preach	-11.8491
neath	-11.8491
▁tease	-11.8492
▁hermit	-11.8493
▁clink	-11.8494
▁distinguish	-11.8494
▁bake	-11.8495
▁skeletons	-11.8496
▁privilege	-11.8497
▁harness	-11.8498
▁flatten	-11.8498
▁toad	-11.8499
▁serving	-11.8502
▁screech	-11.8503
▁cooler	-11.8507
▁alcohol	-11.8508
dens	-11.8512
▁acquaintance	-11.8513
▁dwelt	-11.8513
▁firmament	-11.8513
▁sebasti	-11.8513
▁unwilling	-11.8513
▁cramped	-11.8513
▁groping	-11.8513
▁compact	-11.8513
▁microphone	-11.8513
▁dismal	-11.8513
▁striving	-11.8513
▁revolving	-11.8513
▁enduring	-11.8514
▁dough	-11.8514
▁stabbed	-11.8514
▁famine	-11.8514
▁bouncing	-11.8514
▁magnetic	-11.8514
▁discarded	-11.8514
▁bidding	-11.8514
▁anticipation	-11.8514
▁uneasy	-11.8514
ridden	-11.8514
▁halves	-11.8514
▁terrifying	-11.8514
▁diary	-11.8514
▁miserable	-11.8514
▁pony	-11.8515
▁quail	-11.8515
▁waitress	-11.8515
▁charlie	-11.8515
▁navy	-11.8516
▁injured	-11.8517
▁occupied	-11.8517
▁imitation	-11.8517
▁exhaustion	-11.8518
▁poppy	-11.8521
▁buckle	-11.8521
▁sports	-11.8522
▁cargo	-11.8523
▁accused	-11.8523
▁corrupt	-11.8523
▁jackson	-11.8527
▁rig	-11.8527
▁manhood	-11.8527
▁elk	-11.8528
▁inspired	-11.8529
▁witnesses	-11.853
▁breach	-11.8531
▁iowa	-11.8531
▁barrier	-11.8532
▁landscapes	-11.8532
▁adorned	-11.8533
▁provided	-11.8533
▁pleading	-11.8535
▁packet	-11.8535
▁damaged	-11.8536
▁seriously	-11.854
▁starlings	-11.8541
▁mini	-11.8542
▁fuss	-11.8542
▁unjust	-11.8542
lt	-11.8548
▁fitting	-11.8548
▁purest	-11.855
▁glued	-11.8551
▁treated	-11.8552
▁fairest	-11.8553
▁shorts	-11.8553
▁napkins	-11.8553
▁ability	-11.8554
▁observed	-11.8554
▁canary	-11.8556
kins	-11.8557
▁cookies	-11.8558
bad	-11.856
▁asylum	-11.856
▁confetti	-11.856
▁cheat	-11.8561
▁shreds	-11.8562
▁churches	-11.8563
▁splashing	-11.8564
▁starve	-11.8566
▁gaping	-11.8567
▁brightest	-11.8569
▁crates	-11.8569
▁chimneys	-11.8569
▁edged	-11.8571
▁blasted	-11.8572
▁revealing	-11.8572
▁concept	-11.8578
▁gleamed	-11.858
▁circumstances	-11.8582
▁wick	-11.8583
▁sobs	-11.8587
▁chapter	-11.8587
tra	-11.8587
▁bide	-11.8589
▁chapel	-11.8591
▁swirls	-11.8593
vis	-11.8596
▁freshly	-11.8599
▁vomit	-11.8603
▁waltz	-11.8605
▁pyramids	-11.8605
▁surrounds	-11.8607
▁hoofs	-11.8613
▁realms	-11.8614
▁stag	-11.8614
shouldered	-11.8616
▁han	-11.8618
▁insists	-11.8619
▁gallop	-11.8623
▁nape	-11.863
ipped	-11.863
▁corridors	-11.8631
▁minister	-11.8632
▁frequent	-11.8635
▁recalled	-11.8637
▁wasps	-11.8639
▁speeding	-11.864
▁detroit	-11.8642
▁vinyl	-11.8642
▁prow	-11.8643
▁hallways	-11.8645
▁channels	-11.8645
▁serpents	-11.8647
▁whorl	-11.8649
mont	-11.8651
▁speechless	-11.8652
hear	-11.8653
thank	-11.8656
▁bur	-11.866
▁lads	-11.8663
▁flickers	-11.8664
▁titles	-11.8666
▁bounds	-11.8666
▁stricken	-11.8671
mark	-11.8673
nnotation	-11.8677
▁drains	-11.8679
▁unta	-11.8682
▁plato	-11.8687
▁thoughtful	-11.8688
▁program	-11.8688
dog	-11.8689
▁whips	-11.869
ang	-11.869
ative	-11.8691
▁spur	-11.8698
▁clubs	-11.8699
▁creates	-11.87
lu	-11.8701
▁polar	-11.8704
▁peas	-11.8705
stand	-11.8706
▁cute	-11.871
▁slices	-11.8716
mouth	-11.8717
▁inspire	-11.8718
leave	-11.8719
walk	-11.8723
▁mellow	-11.8727
▁stung	-11.8728
▁bubbling	-11.8728
▁pausing	-11.8728
▁rainbows	-11.8733
wait	-11.8734
▁arcs	-11.874
don	-11.874
▁cod	-11.8745
▁ladys	-11.8745
horse	-11.8745
▁paces	-11.8747
▁brides	-11.8749
▁adams	-11.8752
elle	-11.8757
▁faults	-11.8757
berg	-11.8757
▁forsaken	-11.876
▁pe	-11.8766
▁martyr	-11.8767
▁sincere	-11.8768
pound	-11.8774
▁imprint	-11.8775
▁cha	-11.8781
found	-11.8781
sters	-11.8781
▁fates	-11.8782
together	-11.8787
string	-11.8788
dawn	-11.879
cus	-11.8791
▁steeple	-11.8795
▁cower	-11.8795
worm	-11.8799
kn	-11.8799
living	-11.8802
clouds	-11.8804
▁proceed	-11.8809
▁stamped	-11.881
ak	-11.8811
pack	-11.8811
pp	-11.8812
▁citizen	-11.8813
▁reproach	-11.8814
▁remarkable	-11.8814
▁levels	-11.8815
▁hopeful	-11.8818
▁pang	-11.8818
▁boo	-11.8819
swept	-11.8821
smell	-11.8821
▁eer	-11.8822
▁announce	-11.8822
▁donne	-11.8825
▁scoop	-11.8829
▁tattoo	-11.883
comes	-11.8832
bs	-11.8832
▁hurl	-11.8835
clear	-11.8842
▁sate	-11.8844
▁puff	-11.8845
hr	-11.8846
▁strut	-11.8846
▁multitude	-11.8846
▁bargain	-11.8847
▁brake	-11.885
▁posture	-11.8853
▁merit	-11.8853
tha	-11.8854
▁tr	-11.8854
▁cur	-11.8857
shade	-11.886
leaves	-11.8866
▁paddle	-11.8867
▁gems	-11.8868
▁blacks	-11.8873
ap	-11.8874
lk	-11.8876
▁lash	-11.8877
▁slime	-11.8877
▁contents	-11.8877
▁plea	-11.8885
▁savor	-11.8887
▁drenched	-11.8888
▁construct	-11.8893
▁discontent	-11.8895
▁quench	-11.8896
▁bounce	-11.8897
▁scold	-11.8899
▁apologize	-11.89
▁lumber	-11.8902
▁anyones	-11.8905
▁hoist	-11.8907
▁chile	-11.8907
▁confident	-11.8913
based	-11.8913
▁neutral	-11.8913
▁positive	-11.8913
▁prophecy	-11.8913
▁recognition	-11.8913
▁shrapnel	-11.8913
▁sluggish	-11.8913
▁squash	-11.8913
▁synagogue	-11.8913
▁vodka	-11.8913
▁satisfy	-11.8913
▁testament	-11.8913
▁emergency	-11.8913
▁strode	-11.8913
▁twinkling	-11.8913
▁gravy	-11.8913
▁supple	-11.8913
▁congregation	-11.8913
▁receding	-11.8913
▁plaza	-11.8913
▁conviction	-11.8913
▁nasty	-11.8913
▁staircase	-11.8913
▁canada	-11.8913
▁hollywood	-11.8914
▁nodded	-11.8914
▁basketball	-11.8914
▁devoted	-11.8914
▁unfamiliar	-11.8914
▁urine	-11.8914
▁benign	-11.8914
▁excited	-11.8914
▁disappearance	-11.8914
▁placid	-11.8915
▁lunar	-11.8915
▁makeshift	-11.8915
▁nursery	-11.8916
▁stiffened	-11.8916
coat	-11.8916
▁brace	-11.8917
▁mortality	-11.8917
ago	-11.8917
▁kut	-11.8917
▁slavery	-11.8918
▁ravaged	-11.8919
▁funk	-11.8919
▁budding	-11.8921
strange	-11.8923
▁slumped	-11.8923
▁benches	-11.8925
▁grime	-11.8925
▁muttering	-11.8925
▁raindrops	-11.8926
▁uphill	-11.8927
▁seethe	-11.8928
▁soothing	-11.8928
ripe	-11.8929
▁hardened	-11.893
▁distracted	-11.893
▁foxes	-11.893
▁riverbank	-11.8932
▁fastened	-11.8932
▁pageant	-11.8933
▁sustained	-11.8934
▁classes	-11.8935
▁shattering	-11.8935
▁mor	-11.8939
▁fumes	-11.8939
▁reeling	-11.8939
▁max	-11.8941
▁mossy	-11.8942
▁teaches	-11.8943
▁concerned	-11.8944
▁shrieking	-11.8944
▁depending	-11.8946
▁patiently	-11.8946
▁weighing	-11.8948
▁reared	-11.8948
▁meter	-11.8949
▁waning	-11.895
▁herds	-11.8951
▁wert	-11.8952
ology	-11.8954
▁embers	-11.8955
▁collecting	-11.8956
▁lithe	-11.8958
▁billows	-11.896
hope	-11.8962
▁possibilities	-11.8962
▁scholars	-11.8963
bro	-11.8965
▁hummingbirds	-11.8966
▁endured	-11.8967
▁elders	-11.8973
▁ranch	-11.8974
▁freeway	-11.8977
▁glanced	-11.8981
▁dimly	-11.8983
▁binds	-11.8984
▁decent	-11.8984
gs	-11.8988
▁swelled	-11.8989
▁christs	-11.899
▁accustomed	-11.8991
mes	-11.8991
helm	-11.8991
▁lawyers	-11.8993
▁arched	-11.8994
▁fairer	-11.8997
▁verbs	-11.8998
soul	-11.9001
▁dearer	-11.9002
▁officers	-11.9002
▁closest	-11.9007
▁explaining	-11.9012
▁wherefore	-11.9022
▁violins	-11.9023
▁evolution	-11.9027
▁laurels	-11.9028
hed	-11.9029
▁sickle	-11.9029
▁threaded	-11.9031
▁concerns	-11.9034
▁sag	-11.9036
▁grabb	-11.9037
ization	-11.9037
▁praises	-11.9038
▁blocked	-11.9039
▁elf	-11.9043
▁meditation	-11.9048
▁resembling	-11.9048
▁massacre	-11.9048
▁thunders	-11.9049
▁chuck	-11.905
▁colony	-11.9051
▁bloated	-11.9054
▁raced	-11.9055
▁cruise	-11.9056
version	-11.906
▁wheeling	-11.9065
▁muzzle	-11.9065
▁canyons	-11.9066
▁description	-11.9068
aw	-11.9071
space	-11.908
▁lowly	-11.9083
▁del	-11.9084
▁demanding	-11.9086
▁profane	-11.9087
.5	-11.9092
ress	-11.9094
▁fellows	-11.91
▁tourist	-11.9102
ep	-11.9123
ff	-11.9125
▁mata	-11.9125
▁research	-11.913
locked	-11.9135
▁discord	-11.9137
▁posts	-11.9137
▁triumphant	-11.9138
mounting	-11.9138
▁shedding	-11.9139
▁fingering	-11.9143
raises	-11.9145
▁lightness	-11.9153
▁ab	-11.9154
drops	-11.9156
▁lemons	-11.9157
▁glassy	-11.9158
▁ponder	-11.9158
▁twists	-11.9158
▁movements	-11.9159
▁perfumes	-11.9171
▁classic	-11.9173
▁futures	-11.9174
los	-11.9183
▁50	-11.9185
▁closets	-11.9186
uld	-11.9193
pre	-11.9195
▁highways	-11.9198
▁ob	-11.9199
ide	-11.9199
▁pal	-11.9199
▁imp	-11.9209
eater	-11.9211
▁cove	-11.9214
▁wand	-11.9215
▁imitate	-11.9216
laden	-11.9229
serv	-11.9231
toward	-11.9232
▁lu	-11.9233
▁pail	-11.9239
lord	-11.9246
▁victor	-11.9252
▁groom	-11.9252
▁pedal	-11.9253
▁lowers	-11.9253
▁nourish	-11.9253
▁raft	-11.9256
ws	-11.9258
▁nimble	-11.9258
stalk	-11.9259
▁manifest	-11.9259
▁startle	-11.926
▁rap	-11.926
▁stool	-11.9261
▁sliver	-11.9262
▁peasant	-11.9262
▁helicopter	-11.9263
▁cupboard	-11.9263
▁spectacle	-11.9264
▁comment	-11.9264
▁principle	-11.9264
▁tyrant	-11.9264
▁philosopher	-11.9264
▁summit	-11.9264
cher	-11.9264
▁preacher	-11.9265
▁clothesline	-11.9266
▁landlord	-11.9266
wire	-11.9268
▁flea	-11.9269
▁tramp	-11.927
▁psalm	-11.9271
scented	-11.9271
▁types	-11.9271
20	-11.9273
▁hazel	-11.9275
▁yesterdays	-11.9275
▁ga	-11.9276
▁fable	-11.9277
▁dads	-11.9277
mat	-11.9279
▁wanderer	-11.9281
▁theft	-11.9286
▁ruff	-11.9288
enough	-11.929
▁stutter	-11.9292
▁bead	-11.9295
▁gal	-11.9297
aging	-11.9298
pole	-11.93
stream	-11.9301
▁deceit	-11.9305
hello	-11.9306
▁impress	-11.9308
tum	-11.9309
▁deposit	-11.9312
▁zeal	-11.9312
▁conceive	-11.9314
▁patter	-11.9315
▁stella	-11.9316
▁myrtle	-11.9318
▁mingle	-11.9318
▁chronic	-11.9319
▁obedient	-11.9322
▁louis	-11.9323
▁passive	-11.9323
▁immediate	-11.9323
▁fashioned	-11.9324
▁crotch	-11.9326
▁191	-11.9328
▁affirm	-11.933
▁arrogance	-11.933
▁australia	-11.933
▁crucifix	-11.933
▁fluorescent	-11.933
▁invisibly	-11.933
▁precipice	-11.933
▁tennessee	-11.933
▁dedicate	-11.933
▁alabama	-11.933
▁inviting	-11.933
▁relics	-11.933
▁zebra	-11.933
▁sturdy	-11.933
▁braille	-11.933
▁hapless	-11.933
▁astonishment	-11.933
▁genial	-11.933
▁humility	-11.933
▁patio	-11.933
▁basic	-11.933
▁delta	-11.9331
▁grope	-11.9331
▁wrapping	-11.9331
▁eliot	-11.9331
▁gutted	-11.9331
▁jewish	-11.9331
▁practicing	-11.9332
▁passport	-11.9332
▁patent	-11.9332
▁gnarled	-11.9332
▁thrall	-11.9333
▁scenery	-11.9334
▁continually	-11.9335
▁avalanche	-11.9335
▁unsure	-11.9335
▁jimmy	-11.9335
▁scarves	-11.9335
▁trenches	-11.9336
▁pish	-11.9336
▁sawdust	-11.9336
▁thrashing	-11.9336
▁mire	-11.9337
▁deliberately	-11.9338
▁wistful	-11.9339
▁hitting	-11.9339
▁birches	-11.934
▁rye	-11.9341
00	-11.9341
▁calves	-11.9341
oo	-11.9342
▁luster	-11.9343
▁camel	-11.9343
▁ditches	-11.9343
▁forsake	-11.9344
▁fossil	-11.9345
▁reb	-11.9345
▁puffed	-11.9348
▁delivery	-11.9349
▁lotus	-11.9349
▁fasten	-11.9351
▁mourners	-11.9352
▁afterlife	-11.9354
▁scary	-11.9355
▁westward	-11.9356
▁littered	-11.9357
▁locate	-11.9361
▁particularly	-11.9362
▁feathery	-11.9364
▁wouldst	-11.9365
bu	-11.9366
▁dazzle	-11.9366
nc	-11.9367
▁speaker	-11.9368
▁clutched	-11.9369
▁spoiled	-11.9369
▁genes	-11.938
▁submit	-11.9381
▁shrunken	-11.9382
▁mango	-11.9387
▁sally	-11.9388
▁spikes	-11.9388
ya	-11.9389
▁sexy	-11.9391
ov	-11.9391
▁illuminated	-11.9393
▁sockets	-11.9402
fat	-11.9403
▁parrots	-11.9405
▁youngest	-11.9405
▁loosely	-11.941
▁margins	-11.9413
▁shack	-11.9413
ended	-11.942
makes	-11.9422
▁mac	-11.9424
▁fringe	-11.9425
▁flanks	-11.9431
dance	-11.9432
▁penetrate	-11.9433
riddled	-11.9433
▁tenor	-11.9434
▁cables	-11.9434
▁bowers	-11.9435
▁greatness	-11.9435
▁heaves	-11.9438
▁husks	-11.9439
▁cafe	-11.9441
▁painters	-11.9441
▁lanterns	-11.9444
▁locker	-11.9447
▁blissful	-11.9448
▁unlock	-11.9451
root	-11.9452
las	-11.9456
▁prophets	-11.9458
today	-11.946
▁shapeless	-11.9464
▁volumes	-11.9464
▁williams	-11.9464
▁dusted	-11.9466
▁favour	-11.9467
▁drips	-11.9469
▁buoy	-11.947
▁leopard	-11.947
▁grandparents	-11.947
▁confidence	-11.9471
▁quartz	-11.9471
trick	-11.9475
▁critic	-11.9477
▁vanishes	-11.9481
▁recalling	-11.9484
vil	-11.9484
ants	-11.9487
▁travelers	-11.9492
▁dar	-11.9497
▁alarms	-11.9498
▁disc	-11.9499
▁probe	-11.95
▁devouring	-11.9501
▁aftermath	-11.9502
▁models	-11.9503
▁flit	-11.9504
yeah	-11.9506
▁revel	-11.9516
wings	-11.9517
▁dem	-11.9528
quite	-11.9528
▁unfurl	-11.953
▁plug	-11.9531
lest	-11.9532
▁calle	-11.9533
▁cherish	-11.9545
yne	-11.9547
formed	-11.955
wd	-11.9561
▁robins	-11.9572
▁caution	-11.9579
▁owners	-11.9582
▁camps	-11.9582
▁prick	-11.9584
▁barber	-11.9585
.‘	-11.9604
ean	-11.9617
▁ju	-11.9619
▁tha	-11.9629
met	-11.9638
▁tow	-11.9643
wo	-11.9643
▁guise	-11.9646
▁aging	-11.9648
▁cone	-11.9648
mile	-11.9652
▁apt	-11.9658
▁sho	-11.9661
▁flirt	-11.9669
▁distract	-11.9675
▁circuit	-11.9678
▁decree	-11.9681
▁embraces	-11.9681
▁lice	-11.9683
▁explode	-11.9683
▁connected	-11.9687
▁fee	-11.9687
▁markets	-11.9687
▁mortals	-11.9688
years	-11.9688
▁distraction	-11.9696
▁lobster	-11.9697
▁proportion	-11.9697
▁permit	-11.9697
▁sermon	-11.9697
uf	-11.9698
▁membrane	-11.9698
▁georgia	-11.9698
▁postcard	-11.9698
▁affair	-11.9699
▁constellation	-11.9699
ink	-11.9704
▁chins	-11.9704
▁reminder	-11.971
▁container	-11.971
▁hinge	-11.9718
word	-11.972
doo	-11.9722
outs	-11.9724
▁opal	-11.9726
cloud	-11.9728
▁hog	-11.9728
▁immaculate	-11.9732
▁offices	-11.9736
▁mode	-11.9736
▁assure	-11.9738
turned	-11.9738
▁presents	-11.9739
▁gush	-11.9742
▁neglect	-11.9747
▁oppress	-11.9748
▁coconut	-11.9748
▁convince	-11.9749
▁improve	-11.9749
berry	-11.9751
▁recollect	-11.9757
▁trampled	-11.976
image	-11.9764
unless	-11.9764
▁intellect	-11.9765
▁francis	-11.9765
▁puppy	-11.9765
▁graffiti	-11.9765
▁luxurious	-11.9765
▁misplaced	-11.9765
▁possum	-11.9765
▁preparing	-11.9765
▁university	-11.9765
▁courtesy	-11.9765
▁fabulous	-11.9765
▁industry	-11.9765
▁keats	-11.9765
▁lagoon	-11.9765
▁worries	-11.9765
▁spacious	-11.9765
▁majestic	-11.9765
▁lurid	-11.9765
▁tidy	-11.9765
▁ponies	-11.9765
▁redemption	-11.9765
▁venice	-11.9765
▁studies	-11.9765
▁psychic	-11.9765
▁umber	-11.9765
▁thither	-11.9765
▁amorous	-11.9765
▁internet	-11.9765
▁primary	-11.9765
▁gripped	-11.9765
▁broadcast	-11.9765
▁insight	-11.9766
▁emily	-11.9766
▁admiring	-11.9766
▁workshop	-11.9766
▁applied	-11.9767
▁brimming	-11.9767
▁unison	-11.9767
▁broadway	-11.9767
▁squatting	-11.9767
▁ceaseless	-11.9768
▁contest	-11.9768
▁multi	-11.9768
▁bison	-11.9768
▁crammed	-11.9768
▁lonesome	-11.9768
▁refined	-11.9769
▁stash	-11.9769
▁sculpted	-11.977
▁yourselves	-11.977
cide	-11.977
▁adventure	-11.9771
▁survivors	-11.9771
▁unreal	-11.9771
▁pried	-11.9771
▁restraint	-11.9771
▁dogwood	-11.9772
▁momentary	-11.9773
▁sprawled	-11.9773
▁whining	-11.9774
▁stocking	-11.9775
▁resigned	-11.9776
▁dire	-11.9776
▁tarp	-11.9776
▁mug	-11.9776
▁relish	-11.9777
▁rites	-11.9778
▁herbert	-11.9778
▁diesel	-11.9779
eaten	-11.9781
▁unfurled	-11.9782
az	-11.9783
▁carlos	-11.9783
▁beaded	-11.9783
▁raid	-11.9784
▁panting	-11.9784
▁offspring	-11.9786
▁unlocked	-11.9786
▁warped	-11.9789
▁scots	-11.979
▁vaguely	-11.9791
▁suggested	-11.9792
▁undoing	-11.9794
▁replies	-11.9794
▁filed	-11.9795
▁nile	-11.9796
▁fallow	-11.9797
▁divers	-11.9797
▁lusty	-11.9798
▁gazelles	-11.9799
▁mushrooms	-11.9799
▁drapes	-11.9802
▁snowflakes	-11.9803
▁lingered	-11.9805
winter	-11.9809
happy	-11.981
▁stoic	-11.981
bank	-11.981
beauty	-11.9812
▁refugees	-11.9814
▁stalking	-11.9816
▁shorter	-11.9817
▁wrongs	-11.9818
▁sandals	-11.9819
▁token	-11.9822
▁responsible	-11.9824
hugging	-11.9825
▁barks	-11.9828
▁mourned	-11.9829
lus	-11.9829
▁eels	-11.9829
▁binding	-11.9831
▁aiming	-11.9831
▁ashen	-11.9832
▁yielding	-11.9833
▁philosophers	-11.9834
ft	-11.9834
▁aches	-11.9834
▁hoot	-11.9835
fast	-11.9837
▁gr	-11.9838
▁puffs	-11.984
▁desperately	-11.9843
▁camels	-11.9844
▁grill	-11.9844
▁casts	-11.9845
▁breakers	-11.9847
▁25	-11.985
▁homeland	-11.985
▁pod	-11.9859
▁treading	-11.986
▁laden	-11.9861
▁portraits	-11.9863
▁packing	-11.9863
▁bonds	-11.9864
▁lyrics	-11.9867
▁snarl	-11.9871
▁lighthouse	-11.9877
▁doubtful	-11.9878
ub	-11.9879
strings	-11.9879
paint	-11.9881
load	-11.9881
▁tilts	-11.9882
▁muster	-11.9884
▁breeds	-11.9884
▁crops	-11.9887
▁uttered	-11.9888
mas	-11.989
▁pads	-11.9891
▁droop	-11.9891
pence	-11.9895
▁yells	-11.9896
▁conc	-11.99
▁drench	-11.9901
▁taper	-11.9902
▁gusts	-11.9903
▁towering	-11.9906
shod	-11.9909
hundred	-11.9909
▁shovels	-11.991
▁refuses	-11.9911
▁intelligent	-11.9912
▁austere	-11.9912
▁curving	-11.9912
▁somber	-11.9912
▁valuable	-11.9912
▁location	-11.9912
▁parchment	-11.9912
▁gash	-11.9913
▁hanged	-11.9914
band	-11.9915
▁lasted	-11.9915
burn	-11.9919
▁princes	-11.9919
stead	-11.9924
▁bureau	-11.9929
ug	-11.9933
joy	-11.9935
▁tweed	-11.9938
▁carriage	-11.994
▁cuban	-11.994
▁swayed	-11.9942
▁scents	-11.9943
thinking	-11.9953
eat	-11.9956
▁loosed	-11.9956
▁loops	-11.9957
ola	-11.9961
▁rubs	-11.9963
▁ruthless	-11.9964
je	-11.9973
▁pies	-11.9981
crusted	-11.9982
▁glitters	-11.9983
raised	-11.9985
save	-11.9988
▁fearing	-11.9989
tor	-11.9994
▁thankful	-11.9995
gle	-11.9996
▁grips	-11.9997
▁timeless	-11.9998
▁laps	-11.9998
9.	-12.0004
▁pout	-12.0004
▁pits	-12.0008
loo	-12.0009
▁education	-12.001
pers	-12.0011
▁daisy	-12.0011
▁dappled	-12.0012
▁clack	-12.0015
▁meaningless	-12.0018
istic	-12.002
▁skills	-12.0024
▁treatment	-12.0028
▁hasten	-12.0029
bread	-12.0036
sar	-12.004
▁abuse	-12.005
▁flo	-12.0057
▁strap	-12.0061
▁prevail	-12.0063
▁ar	-12.0065
gie	-12.0067
▁couples	-12.007
▁whack	-12.007
▁maidens	-12.0072
teeming	-12.0072
oc	-12.0075
▁hungers	-12.0075
erie	-12.0077
▁clang	-12.0081
▁experiment	-12.0081
▁scour	-12.0082
▁ro	-12.0084
▁blasts	-12.0087
ight	-12.0092
▁gu	-12.0093
▁pickle	-12.0099
▁upwards	-12.0106
works	-12.0106
▁elegy	-12.0107
▁nonsense	-12.0107
▁texts	-12.0109
cular	-12.0111
▁colorless	-12.0112
▁decorate	-12.0114
wards	-12.0121
▁starved	-12.0127
▁phil	-12.013
▁crate	-12.013
▁lists	-12.0131
▁roars	-12.0131
▁pulses	-12.0132
▁quarrel	-12.0133
lid	-12.0133
▁wring	-12.0135
▁23	-12.0136
▁beckon	-12.0136
fin	-12.0136
▁coldly	-12.0136
▁dangle	-12.0137
show	-12.0137
ius	-12.0139
ab	-12.0145
▁dell	-12.0148
▁gossamer	-12.0149
▁conquest	-12.0149
▁tremor	-12.015
▁classroom	-12.0151
▁satellite	-12.0152
▁globes	-12.0152
▁sycamore	-12.0152
▁vulture	-12.0152
▁cavern	-12.0153
▁opinion	-12.0153
▁shak	-12.0153
▁dagger	-12.0153
▁expectation	-12.0153
▁glacier	-12.0153
▁connection	-12.0154
▁carrot	-12.0154
void	-12.0156
▁reef	-12.0156
▁european	-12.0156
▁oath	-12.0157
▁idol	-12.016
▁complaint	-12.0164
lag	-12.0164
ition	-12.0165
▁deem	-12.0165
▁covert	-12.0172
uff	-12.0175
▁chests	-12.0178
▁attract	-12.0179
▁underside	-12.018
gent	-12.018
▁sheltered	-12.0181
▁leftover	-12.0192
▁coax	-12.0196
▁accord	-12.0196
lived	-12.0198
▁pok	-12.0198
▁interview	-12.0202
ek	-12.0202
▁attach	-12.0205
▁trough	-12.0207
▁scrawl	-12.0208
▁births	-12.0209
▁saliva	-12.0209
▁grasshopper	-12.0209
▁migra	-12.021
▁ravish	-12.0211
▁fluff	-12.0213
▁volcano	-12.0214
▁loam	-12.0215
▁prosper	-12.0215
▁mindless	-12.0216
▁korea	-12.0216
▁republic	-12.0217
▁brisk	-12.0219
▁vietnam	-12.0219
▁bounty	-12.0219
▁commerce	-12.0219
▁crocodile	-12.0219
▁drool	-12.0219
▁economy	-12.0219
▁hallelujah	-12.0219
▁happiest	-12.0219
▁intimacy	-12.0219
▁jasmine	-12.0219
▁margaret	-12.0219
▁prodigal	-12.0219
▁releasing	-12.0219
▁russet	-12.0219
▁segment	-12.0219
▁askew	-12.0219
▁pungent	-12.0219
▁reverence	-12.0219
▁squid	-12.0219
▁whiff	-12.0219
▁pitiful	-12.0219
▁spectral	-12.0219
▁ochre	-12.0219
cultural	-12.0219
▁creating	-12.0219
▁melodious	-12.0219
▁extension	-12.0219
▁extent	-12.0219
▁histories	-12.022
▁mobile	-12.022
▁embarrassment	-12.022
▁aurora	-12.022
▁trading	-12.022
▁arbor	-12.022
▁holiness	-12.022
▁reference	-12.022
▁reclaim	-12.022
▁melodies	-12.022
▁pilgrimage	-12.022
▁snapping	-12.022
▁twain	-12.0221
▁assist	-12.0221
▁relationship	-12.0221
▁width	-12.0221
▁milkweed	-12.0222
▁fisherman	-12.0223
▁wildflowers	-12.0223
▁cleave	-12.0223
▁moonshine	-12.0224
▁embarrassing	-12.0224
▁jutting	-12.0225
▁motto	-12.0225
▁feral	-12.0225
▁shrubs	-12.0225
▁drizzle	-12.0226
▁gait	-12.0226
▁displaced	-12.0226
▁awareness	-12.0226
▁lease	-12.0228
▁ramp	-12.023
▁iced	-12.023
▁marker	-12.023
▁babble	-12.0231
▁muttered	-12.0231
▁subdued	-12.0231
▁scratches	-12.0232
▁extremely	-12.0233
▁bedside	-12.0235
▁rein	-12.0235
▁threatened	-12.0236
▁ballet	-12.0236
▁announced	-12.0237
▁worshipp	-12.0241
▁impart	-12.0241
▁loosened	-12.0242
▁galloping	-12.0243
mind	-12.0243
▁conquered	-12.0245
▁recovered	-12.0245
▁data	-12.0246
▁inherited	-12.0246
vie	-12.0248
▁ripening	-12.0248
fiddle	-12.0251
▁munch	-12.0253
▁glimmering	-12.0255
▁aqua	-12.0255
▁giants	-12.0256
▁tilting	-12.0257
mr	-12.0259
▁rescued	-12.0259
▁mended	-12.026
▁suspicious	-12.0261
▁numbered	-12.0262
▁mocked	-12.0264
▁terrors	-12.0265
▁headlong	-12.0265
▁chanting	-12.0269
▁tony	-12.0269
▁angeles	-12.027
▁musicians	-12.0274
▁apocalypse	-12.0275
▁surviving	-12.0275
▁international	-12.0275
▁vibrant	-12.0275
▁brad	-12.0275
▁feature	-12.0276
▁str	-12.0276
▁whistled	-12.0276
color	-12.0277
blow	-12.0277
stock	-12.0279
▁dimensions	-12.0279
▁cheering	-12.0283
▁tickle	-12.0285
▁nibble	-12.0285
▁learnt	-12.0286
▁diminished	-12.0287
▁affairs	-12.0289
▁explodes	-12.0289
▁thyme	-12.0289
handled	-12.0291
▁homer	-12.0293
pressed	-12.0294
▁jets	-12.0295
▁quo	-12.0298
▁fullness	-12.0305
horn	-12.0305
▁skimm	-12.0306
▁guarded	-12.0306
▁mumble	-12.0307
▁carol	-12.0308
▁diver	-12.031
▁bananas	-12.031
clad	-12.0311
pen	-12.0313
▁cranes	-12.0313
▁201	-12.0314
lia	-12.0319
▁mon	-12.0319
▁soundless	-12.032
▁awakening	-12.0322
▁eel	-12.0324
cre	-12.0326
inkling	-12.0326
▁slam	-12.0332
tip	-12.0335
▁visiting	-12.0335
▁extends	-12.0336
▁hal	-12.0336
▁orphans	-12.0338
▁throb	-12.0338
▁deserves	-12.0338
▁duke	-12.034
▁streaks	-12.0345
capable	-12.0345
tipped	-12.0345
▁windless	-12.0346
▁emperors	-12.0347
lucky	-12.0349
▁eased	-12.035
▁condemn	-12.0354
beaten	-12.0358
▁swath	-12.0358
▁tickets	-12.036
length	-12.0362
moving	-12.0362
swift	-12.0363
paper	-12.0364
felt	-12.0365
▁silks	-12.0366
children	-12.0366
▁offerings	-12.0369
▁spirals	-12.037
friend	-12.037
better	-12.037
14	-12.037
▁compost	-12.0371
▁spears	-12.0372
▁choking	-12.0373
▁vanilla	-12.0374
▁manic	-12.0382
big	-12.0385
▁observ	-12.0385
mb	-12.0387
▁sculpture	-12.039
▁aspen	-12.039
▁wir	-12.0392
▁flawed	-12.0393
kill	-12.0394
▁bouquets	-12.0394
knowing	-12.0395
▁stress	-12.0396
believe	-12.04
▁reports	-12.0401
▁shrouds	-12.0401
▁wrecks	-12.0402
▁reigns	-12.0403
▁coughs	-12.0404
maker	-12.0404
▁gums	-12.0405
▁guitars	-12.041
▁martin	-12.0412
▁lang	-12.0412
▁clicks	-12.0413
▁exiles	-12.0413
teeth	-12.0413
▁colder	-12.0416
youve	-12.0422
throated	-12.0423
▁dynamite	-12.0424
▁cometh	-12.0425
ken	-12.0429
stroke	-12.0432
▁groups	-12.0438
▁shadowed	-12.0438
▁cal	-12.0439
▁register	-12.0445
shadows	-12.0446
▁lashed	-12.0448
▁deceive	-12.045
luck	-12.0453
toothed	-12.0453
flesh	-12.0455
▁conch	-12.0458
▁forge	-12.0459
igh	-12.0462
▁metaphors	-12.0469
cht	-12.0472
▁endures	-12.0472
flies	-12.0474
screen	-12.0474
▁relieved	-12.0475
▁industrial	-12.0475
▁poly	-12.0477
▁milton	-12.048
▁emotions	-12.048
▁hag	-12.0483
▁altars	-12.0485
▁orchid	-12.0486
▁odors	-12.0487
flash	-12.049
▁ruffled	-12.0492
▁mime	-12.0493
leg	-12.0493
▁preserved	-12.05
lyn	-12.05
▁daddys	-12.0504
▁loft	-12.0505
ella	-12.0506
hill	-12.0507
zed	-12.0509
▁drear	-12.0512
rush	-12.0512
▁neighborhoods	-12.0513
▁belts	-12.0515
blo	-12.0516
▁warmer	-12.0516
▁commands	-12.0517
▁rattles	-12.0519
▁heed	-12.0523
▁stranded	-12.0524
▁troop	-12.0526
”;	-12.0528
▁literal	-12.0531
suit	-12.0535
kel	-12.0538
▁hank	-12.0539
▁fearless	-12.054
wave	-12.0541
stones	-12.0542
▁moms	-12.0546
sco	-12.0551
guard	-12.0551
▁suffers	-12.0552
pass	-12.0552
tail	-12.0556
hands	-12.0564
▁cu	-12.0566
▁beards	-12.0568
bh	-12.0573
▁wren	-12.0579
▁cloudless	-12.0583
▁squint	-12.0588
tick	-12.0589
▁highly	-12.059
facing	-12.0591
▁splintered	-12.0593
▁whipping	-12.0594
▁conceived	-12.0596
ility	-12.0605
▁sneeze	-12.0607
▁threaten	-12.0607
▁retrieve	-12.0609
▁tether	-12.0609
▁bon	-12.0611
▁rumble	-12.0611
▁wordless	-12.0614
▁iraq	-12.0616
▁spike	-12.0616
▁venture	-12.062
▁bray	-12.0621
▁nothings	-12.0622
var	-12.0623
▁pirate	-12.0624
▁telescope	-12.0624
nn	-12.0624
▁kennedy	-12.0626
▁perception	-12.0626
▁review	-12.0627
▁almond	-12.0629
▁invoke	-12.063
bill	-12.063
park	-12.0639
bun	-12.0641
▁mitt	-12.0641
▁liv	-12.0641
▁zones	-12.0642
aint	-12.0642
▁las	-12.0644
gue	-12.0649
▁tuned	-12.0653
▁russia	-12.0656
▁lil	-12.0662
▁dine	-12.0665
twixt	-12.0666
▁faced	-12.0668
▁confirm	-12.067
▁gird	-12.0674
▁insides	-12.0675
▁wretch	-12.0675
▁backdrop	-12.0675
inn	-12.0675
▁vex	-12.0676
▁madam	-12.068
▁ambush	-12.0683
daniel	-12.0683
▁grandmas	-12.0683
▁illegal	-12.0688
▁tentative	-12.0688
▁abrupt	-12.0689
▁horizontal	-12.0689
▁sensitive	-12.0691
▁differ	-12.0691
▁crypt	-12.0691
▁context	-12.0692
▁exult	-12.0693
▁venom	-12.0695
▁superior	-12.0695
▁principal	-12.0695
▁alabaster	-12.0695
▁athwart	-12.0695
▁brocade	-12.0695
▁civic	-12.0695
▁concentration	-12.0695
▁currency	-12.0695
▁defiance	-12.0695
▁ebony	-12.0695
▁frenzy	-12.0695
▁glaring	-12.0695
▁mediterranean	-12.0695
▁resort	-12.0695
▁salvador	-12.0695
▁sultry	-12.0695
▁tremendous	-12.0695
▁balancing	-12.0695
▁choosing	-12.0695
▁collapsing	-12.0695
▁magnify	-12.0695
▁missouri	-12.0695
▁sheriff	-12.0695
▁tremulous	-12.0695
▁unmoved	-12.0695
▁mumbling	-12.0695
▁nuclear	-12.0695
▁primitive	-12.0695
▁manifold	-12.0695
▁ferocious	-12.0696
▁lattice	-12.0696
▁runners	-12.0696
▁endurance	-12.0696
▁orleans	-12.0696
▁larry	-12.0696
▁popcorn	-12.0696
▁beige	-12.0696
▁achilles	-12.0696
▁rummag	-12.0696
▁trivial	-12.0696
▁tedious	-12.0696
▁amazement	-12.0696
▁horrid	-12.0696
▁mockery	-12.0696
▁astray	-12.0696
▁jellyfish	-12.0696
▁hugged	-12.0696
▁zeus	-12.0696
▁permitted	-12.0696
▁siding	-12.0696
▁berlin	-12.0696
▁mummy	-12.0696
▁affliction	-12.0697
▁jewelry	-12.0697
▁radical	-12.0697
stars	-12.0697
▁panther	-12.0697
▁fraud	-12.0697
▁plumage	-12.0697
▁dentist	-12.0698
▁unspoken	-12.0698
▁controlled	-12.0698
▁forgetfulness	-12.0698
▁tablecloth	-12.0698
▁vary	-12.0699
▁sanity	-12.0699
row	-12.07
▁usura	-12.0701
▁dodge	-12.0701
▁hoary	-12.0702
▁entreat	-12.0702
▁pike	-12.0702
▁related	-12.0702
▁midway	-12.0703
▁marshes	-12.0703
▁mittens	-12.0703
▁blistered	-12.0705
▁startling	-12.0706
▁digital	-12.0706
weedy	-12.0706
▁lamplight	-12.0707
write	-12.0707
▁husky	-12.0708
▁faraway	-12.0708
▁isolated	-12.0709
▁virgil	-12.071
▁seemingly	-12.071
▁crumbled	-12.071
▁thrum	-12.0712
▁quay	-12.0713
▁scrawled	-12.0713
▁molecules	-12.0713
▁bowels	-12.0714
▁stallion	-12.0715
▁obviously	-12.0715
▁nigga	-12.0717
▁drooping	-12.0718
▁pointless	-12.072
▁unlikely	-12.072
▁rinsed	-12.0723
zy	-12.0725
▁willingly	-12.0729
▁snowing	-12.073
▁buses	-12.073
▁peered	-12.0731
▁sniffing	-12.0732
▁robber	-12.0733
▁kindling	-12.0733
▁tenth	-12.0733
▁hitch	-12.0733
▁nomad	-12.0735
▁gasping	-12.0735
▁inhabited	-12.0737
▁rooftops	-12.0737
▁tufts	-12.0739
▁flared	-12.074
▁displayed	-12.0741
bred	-12.0745
▁hae	-12.0747
▁rider	-12.0749
▁mechanics	-12.0749
oon	-12.075
▁finer	-12.0751
▁delicately	-12.0752
▁coughing	-12.0753
▁obsolete	-12.0754
▁mechanism	-12.0754
▁kittens	-12.0755
▁jig	-12.0756
small	-12.0757
▁uns	-12.0758
▁viii	-12.0759
▁hike	-12.076
fr	-12.076
▁disco	-12.0761
▁obscured	-12.0761
uk	-12.0761
▁silky	-12.0762
▁hired	-12.0762
▁caverns	-12.0765
▁complaints	-12.0766
▁sc	-12.0767
▁throbs	-12.0769
▁gore	-12.077
▁shacks	-12.0772
▁sears	-12.0774
ans	-12.0775
▁martyrs	-12.0775
▁adah	-12.0776
▁sharply	-12.0783
▁burdened	-12.0785
▁shrug	-12.0789
▁sinew	-12.079
▁explosions	-12.0791
▁hys	-12.0801
lands	-12.0804
▁taped	-12.081
▁remnants	-12.0811
▁suggests	-12.0814
▁devices	-12.0815
▁blamed	-12.0818
▁electrical	-12.082
▁dews	-12.082
▁surmise	-12.0827
▁customs	-12.0829
▁comforted	-12.0829
▁differently	-12.083
▁collapses	-12.083
▁drawings	-12.0832
▁arab	-12.0834
▁schemes	-12.0837
turning	-12.0838
▁193	-12.084
▁makeup	-12.0849
▁bru	-12.085
▁colorful	-12.0851
mate	-12.0855
▁yearn	-12.0855
▁issues	-12.0856
▁testing	-12.0857
▁orpheus	-12.0857
▁arrogant	-12.0857
▁deathless	-12.0862
▁consolation	-12.0862
▁planting	-12.0863
▁ridges	-12.0863
▁auntie	-12.0863
▁thrills	-12.0867
▁doubled	-12.087
▁shrinks	-12.087
▁vent	-12.0874
▁novels	-12.0883
fulness	-12.0883
▁flooding	-12.0886
blade	-12.0886
▁branching	-12.0889
beside	-12.0891
▁cherub	-12.0896
seed	-12.0898
▁shivers	-12.0898
▁smoothed	-12.0904
▁flecks	-12.0905
▁dearly	-12.0905
▁fleshy	-12.0911
▁drawers	-12.0914
▁scores	-12.0917
▁usher	-12.0918
▁errors	-12.0918
▁countrys	-12.092
sses	-12.0921
▁converse	-12.0928
cola	-12.0934
atta	-12.0938
▁phantoms	-12.0938
▁longest	-12.094
having	-12.0944
whilst	-12.0944
cer	-12.0945
floor	-12.0945
calm	-12.0946
ular	-12.0946
minute	-12.0947
listen	-12.0948
wide	-12.0949
heaven	-12.0949
buried	-12.0952
ain	-12.0955
kept	-12.0957
peace	-12.0958
▁mow	-12.0962
ell	-12.0962
tar	-12.0962
▁comet	-12.0963
▁fraught	-12.0964
forever	-12.0964
▁redden	-12.0964
▁jupiter	-12.0964
▁embracing	-12.0964
▁ot	-12.0965
▁les	-12.0966
garden	-12.0968
"—	-12.0968
▁ruth	-12.0973
stay	-12.0974
▁assigned	-12.0974
pol	-12.0975
▁maya	-12.0978
sounding	-12.0979
reaching	-12.0983
clawed	-12.0985
▁coyotes	-12.0988
john	-12.0988
▁trips	-12.0991
▁tempests	-12.0994
feel	-12.0996
sse	-12.1003
hall	-12.1007
▁juices	-12.1007
90	-12.101
▁horned	-12.1014
rg	-12.1017
▁pitched	-12.1025
▁waft	-12.1028
▁guides	-12.1034
▁loan	-12.1035
itude	-12.1036
▁rasp	-12.1037
▁funerals	-12.1038
saying	-12.1038
▁charmed	-12.104
▁stomachs	-12.1043
▁alan	-12.1044
chain	-12.1045
▁rift	-12.1046
▁label	-12.1047
32	-12.1049
bridge	-12.1051
▁monitor	-12.1053
▁phosphor	-12.1055
vision	-12.1058
storm	-12.1061
ple	-12.1067
used	-12.1071
▁wrack	-12.1072
▁ringed	-12.1072
bomb	-12.1075
▁forbear	-12.1079
nam	-12.108
▁scum	-12.1082
wet	-12.1082
fingered	-12.1083
catch	-12.1085
▁gears	-12.109
▁accounts	-12.1099
▁lookd	-12.11
▁mie	-12.1101
block	-12.1105
▁sentiment	-12.1108
▁reject	-12.111
▁mythic	-12.1111
▁vulnerable	-12.1114
houses	-12.1116
▁wobble	-12.1117
▁bridle	-12.1117
zing	-12.1118
singing	-12.112
trap	-12.1121
boned	-12.1121
▁looming	-12.1121
▁member	-12.1122
▁ghetto	-12.1124
▁yolk	-12.1126
▁suspicion	-12.1126
▁juniper	-12.1127
▁beacon	-12.1127
▁cardinal	-12.1127
▁invitation	-12.1127
▁vista	-12.1128
▁mustache	-12.1128
▁suggestion	-12.1128
▁peanut	-12.1128
▁commend	-12.1129
▁puppet	-12.1129
ulus	-12.113
▁hummingbird	-12.113
▁vowel	-12.1131
▁mortgage	-12.1132
▁ale	-12.1136
▁champ	-12.1138
▁wasp	-12.1139
bent	-12.1139
▁girdle	-12.1143
▁sane	-12.1148
▁crowding	-12.1149
▁caked	-12.1153
▁rung	-12.1155
▁ag	-12.1155
▁director	-12.1157
▁undress	-12.1157
▁clothe	-12.1164
stood	-12.1164
loud	-12.1164
▁pimp	-12.1169
▁cuba	-12.117
▁mixing	-12.1175
▁multiply	-12.1175
▁flail	-12.1176
lan	-12.1176
▁misses	-12.1177
▁legal	-12.1178
▁bulge	-12.1179
▁solve	-12.1179
▁scourge	-12.118
▁buffet	-12.118
▁imperfect	-12.118
▁cul	-12.118
▁revive	-12.118
▁bunk	-12.1182
▁devise	-12.1183
▁dimension	-12.1186
▁fitted	-12.1188
▁pub	-12.1188
ators	-12.1188
▁perilous	-12.1189
▁profession	-12.1191
▁mounted	-12.1191
▁fry	-12.1192
▁wanna	-12.1194
▁sulphur	-12.1195
eb	-12.1195
▁furtive	-12.1195
▁sulfur	-12.1195
▁columbus	-12.1195
▁envious	-12.1195
▁flurry	-12.1195
▁licorice	-12.1195
▁narcissus	-12.1195
▁philadelphia	-12.1195
▁qualities	-12.1195
▁refusal	-12.1195
▁spectacular	-12.1195
▁stadium	-12.1195
▁suspension	-12.1195
▁technology	-12.1195
▁trophies	-12.1195
▁welfare	-12.1195
▁scurry	-12.1195
▁motorcycle	-12.1195
▁antelope	-12.1195
▁churning	-12.1195
▁flaunt	-12.1195
▁charcoal	-12.1196
▁commotion	-12.1196
biography	-12.1196
studded	-12.1196
▁embroidered	-12.1196
▁conceit	-12.1196
▁medium	-12.1196
▁rearview	-12.1196
▁strawberries	-12.1196
▁carolina	-12.1196
▁elastic	-12.1196
▁siege	-12.1196
▁jolt	-12.1196
▁necessarily	-12.1196
▁radar	-12.1196
▁reverent	-12.1196
▁abode	-12.1196
▁sinister	-12.1196
▁spied	-12.1196
▁baking	-12.1196
▁buoyant	-12.1196
▁matron	-12.1196
▁tugged	-12.1196
▁tuning	-12.1196
▁skipping	-12.1196
▁minus	-12.1197
▁published	-12.1197
▁cottonwood	-12.1197
▁hastily	-12.1197
▁commonplace	-12.1198
▁accidental	-12.1198
▁plaid	-12.1198
▁navel	-12.1198
▁lemonade	-12.1198
▁feverish	-12.1199
▁weariness	-12.12
medical	-12.12
▁paved	-12.12
▁midday	-12.1201
▁boyhood	-12.1201
▁nether	-12.1202
▁compelled	-12.1202
▁abruptly	-12.1203
▁sandwiches	-12.1203
▁prickly	-12.1204
▁bloodied	-12.1205
▁italy	-12.1207
▁pajamas	-12.1207
▁organized	-12.1208
▁downstream	-12.121
▁brack	-12.1211
▁staggered	-12.1212
▁reckoning	-12.1212
▁pol	-12.1213
▁condemned	-12.1214
▁comedy	-12.1214
▁dented	-12.1214
▁snak	-12.1215
▁downcast	-12.1215
rated	-12.1215
▁jealousy	-12.1215
▁import	-12.1215
▁tattooed	-12.1217
▁rendered	-12.1218
▁overflowing	-12.1218
▁meantime	-12.1218
▁barter	-12.1219
▁cue	-12.1219
robbed	-12.1219
▁modesty	-12.1219
▁wrenched	-12.1219
▁homework	-12.1221
▁straighten	-12.1222
▁ripened	-12.1223
▁suite	-12.1225
▁chalky	-12.1225
▁contours	-12.1228
▁coolness	-12.123
ok	-12.1231
▁wakened	-12.1231
mouthed	-12.1232
▁atlas	-12.1232
▁perished	-12.1233
▁autumnal	-12.1234
▁crevices	-12.1235
pot	-12.1235
▁cocks	-12.1235
▁sprouting	-12.1235
▁urged	-12.1236
▁dent	-12.1236
▁molded	-12.1237
▁outdoors	-12.1238
▁clattering	-12.1239
▁spurn	-12.124
▁springtime	-12.1241
▁steamy	-12.1241
▁fissures	-12.1241
▁creases	-12.1242
▁lair	-12.1243
▁wholl	-12.1243
▁allure	-12.1244
fine	-12.1244
▁hotels	-12.1245
▁raped	-12.1246
▁grieved	-12.1247
▁madman	-12.1247
▁nouns	-12.1249
▁immigrants	-12.1252
▁departing	-12.1253
▁darkling	-12.1254
▁converge	-12.1257
▁symmetry	-12.1257
▁enclosure	-12.1257
▁chattanooga	-12.1257
▁bristling	-12.1257
▁chemistry	-12.1257
▁tay	-12.1257
▁mc	-12.1258
▁jos	-12.1259
ifying	-12.1259
▁apparition	-12.126
▁sparkles	-12.126
▁barr	-12.1261
▁terra	-12.1262
▁mules	-12.1263
▁pla	-12.1263
▁scope	-12.1263
▁powdered	-12.1264
hail	-12.1265
▁tackle	-12.1268
▁wrens	-12.1269
▁beckons	-12.1269
▁items	-12.1269
▁paced	-12.1272
▁blot	-12.1273
▁articulate	-12.1273
▁vic	-12.1273
▁struggled	-12.1275
track	-12.1275
▁principles	-12.1276
▁decayed	-12.1277
▁burying	-12.1277
▁fleas	-12.1277
▁lurk	-12.1277
hang	-12.1279
▁tattoos	-12.1279
▁episode	-12.1279
cate	-12.1281
▁pangs	-12.1282
▁stroked	-12.1288
▁heated	-12.129
▁locusts	-12.1293
▁scorned	-12.1295
▁embraced	-12.1297
dale	-12.1298
▁freckle	-12.1298
ump	-12.1298
▁bays	-12.1298
▁sown	-12.1299
▁allowing	-12.13
fringed	-12.13
▁tomorrows	-12.1302
net	-12.1302
▁sere	-12.1303
▁roared	-12.1304
▁ascent	-12.1305
▁neighboring	-12.1307
12	-12.1312
▁blossomed	-12.1313
▁cho	-12.1314
▁boon	-12.1317
▁mature	-12.1317
▁containing	-12.1318
▁cro	-12.1319
▁withering	-12.132
▁agent	-12.1321
▁vapors	-12.1324
mag	-12.1329
▁covet	-12.1331
fetched	-12.1331
▁sweeten	-12.1333
▁racks	-12.1337
▁bins	-12.1338
▁props	-12.1341
miss	-12.1345
▁sweaters	-12.1345
▁shimmers	-12.1347
▁conditions	-12.1347
pac	-12.1348
▁legends	-12.1348
▁snowfall	-12.135
▁mica	-12.136
▁wasting	-12.1362
▁butchers	-12.1364
▁triumphs	-12.1365
▁materials	-12.1365
▁automatic	-12.1366
▁perchance	-12.1367
▁arthur	-12.1367
▁inform	-12.1367
edged	-12.137
▁gel	-12.1372
▁physician	-12.1372
▁frowns	-12.1376
▁trailer	-12.1378
▁spoils	-12.1379
ynge	-12.1381
▁gifted	-12.1381
▁arranging	-12.1382
▁occasions	-12.1385
▁occupation	-12.1386
mong	-12.1386
▁fainting	-12.1386
▁sable	-12.1389
▁illusions	-12.1389
yn	-12.139
▁mounts	-12.1391
▁caring	-12.1391
▁canals	-12.1392
thing	-12.1394
▁hoard	-12.1396
▁squad	-12.1397
▁indoors	-12.1398
▁herring	-12.1399
▁dribble	-12.14
▁wig	-12.1402
▁retain	-12.1404
▁dreamers	-12.1406
▁auld	-12.1406
▁arrayed	-12.1407
▁warms	-12.1409
▁squeezed	-12.1409
▁swimmer	-12.141
▁catastrophe	-12.142
▁ticks	-12.1423
▁grins	-12.1427
▁questioned	-12.1428
▁castles	-12.1432
rr	-12.1434
kes	-12.1437
▁combat	-12.1438
▁oiled	-12.1438
▁carrots	-12.144
iff	-12.1444
▁stoops	-12.1445
lea	-12.1448
hop	-12.145
▁historys	-12.1453
wheel	-12.1457
▁judges	-12.1462
▁viewed	-12.1462
▁worldly	-12.1462
▁joan	-12.1465
▁cautious	-12.1471
burg	-12.1473
▁crafts	-12.1473
▁cubes	-12.1479
▁shuffling	-12.1479
▁tack	-12.1487
▁existing	-12.1488
bear	-12.1489
▁creeks	-12.1493
▁flora	-12.1498
rig	-12.1498
▁sparkle	-12.1502
▁shew	-12.1511
.3	-12.1511
ator	-12.1514
▁notch	-12.1514
▁butts	-12.1514
▁bids	-12.1517
▁presidents	-12.1517
▁quill	-12.1522
dream	-12.1523
▁gulp	-12.1524
▁museums	-12.1527
stick	-12.1532
▁trauma	-12.1537
▁mart	-12.1537
▁rout	-12.154
ooh	-12.1542
cause	-12.1542
▁threatening	-12.1546
▁poll	-12.1548
rk	-12.1548
▁meanings	-12.1548
tta	-12.1553
ash	-12.1553
ua	-12.1555
▁asses	-12.1557
▁sie	-12.1559
drop	-12.1563
▁moored	-12.1564
folk	-12.1565
call	-12.1567
shell	-12.1567
▁briar	-12.1568
soaked	-12.1569
▁whiter	-12.1573
▁fortress	-12.1576
beautiful	-12.1578
milk	-12.1578
second	-12.158
left	-12.158
hungry	-12.1581
▁bedrooms	-12.1582
already	-12.1588
blessed	-12.1588
young	-12.159
▁asian	-12.1591
▁hawthorn	-12.1591
▁dipping	-12.1594
▁fiber	-12.1596
somewhere	-12.1599
fuck	-12.1601
▁dey	-12.1603
trop	-12.1605
rank	-12.1608
▁exploded	-12.1608
▁sloth	-12.1609
breathing	-12.161
rom	-12.1611
▁mouthful	-12.1614
▁straws	-12.1616
▁stagger	-12.1618
▁expose	-12.162
▁overflow	-12.1623
▁splinter	-12.1629
▁fiend	-12.1633
▁fruitful	-12.1635
▁trellis	-12.164
▁crumble	-12.164
drunk	-12.1641
▁slither	-12.1641
seeing	-12.1642
▁bandage	-12.1643
▁scholar	-12.1649
cursive	-12.165
▁temptation	-12.1651
▁monsoon	-12.1652
▁dialogue	-12.1653
▁knob	-12.1653
▁shuttle	-12.1654
▁nigger	-12.1654
▁avocado	-12.1654
▁craving	-12.1654
▁crumb	-12.1654
▁arrangement	-12.1655
▁kitten	-12.1655
▁bonfire	-12.1655
▁peacock	-12.1655
▁bracelet	-12.1656
▁betrayal	-12.1656
▁sapling	-12.1657
▁ancestor	-12.1657
summer	-12.1658
street	-12.1664
bare	-12.1664
▁overcoat	-12.1666
▁clod	-12.1667
front	-12.1673
hydr	-12.1675
fill	-12.1677
▁visitor	-12.1678
▁hospitals	-12.1679
▁turner	-12.1683
▁streetlight	-12.1683
▁scald	-12.1684
borne	-12.1685
▁batter	-12.169
▁slush	-12.1692
▁bearded	-12.1692
▁allen	-12.1695
hawk	-12.1701
▁recoil	-12.1701
▁holler	-12.1703
▁mildew	-12.1704
▁plunder	-12.1704
▁rouge	-12.1704
▁transport	-12.1704
▁attain	-12.1705
▁confine	-12.1706
▁rightly	-12.1707
ski	-12.1707
▁poise	-12.1707
▁nonetheless	-12.171
cross	-12.1712
▁railing	-12.1713
▁thorough	-12.1715
▁increasing	-12.1715
▁apparent	-12.1715
▁hyacinth	-12.1717
▁pomegranate	-12.172
▁lewd	-12.172
▁gill	-12.172
▁aroma	-12.1721
▁thrift	-12.1721
▁encourage	-12.1721
▁arguing	-12.1722
▁congress	-12.1722
▁contemporary	-12.1722
▁crucial	-12.1722
▁curiosity	-12.1722
▁dividing	-12.1722
▁eloquence	-12.1722
▁haughty	-12.1722
▁hebrew	-12.1722
▁illumination	-12.1722
▁inexplicable	-12.1722
▁junior	-12.1722
▁literary	-12.1722
▁massachusetts	-12.1722
▁obsidian	-12.1722
▁peonies	-12.1722
▁pittsburgh	-12.1722
▁receiving	-12.1722
▁saviour	-12.1722
▁squeezing	-12.1722
▁tawny	-12.1722
▁tundra	-12.1722
▁unimaginable	-12.1722
▁valiant	-12.1722
▁vengeance	-12.1722
▁kindergarten	-12.1722
▁plural	-12.1722
▁dregs	-12.1722
▁hulk	-12.1722
▁miami	-12.1722
▁heritage	-12.1722
▁mosaic	-12.1722
▁urgency	-12.1722
▁bodily	-12.1722
▁baggage	-12.1722
▁empties	-12.1722
▁toothbrush	-12.1722
▁bluish	-12.1722
▁victorious	-12.1722
▁typing	-12.1722
▁forecast	-12.1722
lying	-12.1722
▁piggy	-12.1722
▁injury	-12.1722
▁calcu	-12.1722
▁greyhound	-12.1722
▁midsummer	-12.1722
▁skitter	-12.1722
▁clapping	-12.1722
▁hesitation	-12.1722
▁oblong	-12.1722
▁ripping	-12.1722
▁rugged	-12.1723
▁valor	-12.1723
▁rebirth	-12.1723
▁midair	-12.1723
▁stairwell	-12.1723
▁measuring	-12.1723
▁tinsel	-12.1723
▁radiator	-12.1724
▁tarry	-12.1724
▁unnamed	-12.1724
▁driftwood	-12.1724
▁unheard	-12.1724
▁tinder	-12.1724
▁fulfill	-12.1724
▁underbrush	-12.1725
▁discourse	-12.1725
▁gypsy	-12.1726
▁ardor	-12.1726
▁groin	-12.1726
▁unmoving	-12.1726
▁denim	-12.1726
▁algae	-12.1727
▁enterprise	-12.1727
▁oxen	-12.1727
▁transformation	-12.1727
▁pastoral	-12.1727
▁raking	-12.1727
▁aphrodite	-12.1727
▁regardless	-12.1728
▁versu	-12.1728
▁lorca	-12.1728
▁rational	-12.1731
▁heartbreak	-12.1732
▁fractured	-12.1732
viet	-12.1732
▁menace	-12.1733
▁dank	-12.1733
plum	-12.1733
▁conductor	-12.1734
▁damon	-12.1734
▁betty	-12.1734
▁lacquered	-12.1734
melt	-12.1735
▁mommy	-12.1735
▁cheekbones	-12.1735
▁puncture	-12.1736
▁rages	-12.1737
▁starched	-12.1738
31	-12.1738
▁instructed	-12.1738
▁watts	-12.174
▁victorian	-12.174
▁dispersed	-12.1741
▁sandstone	-12.1741
▁thickening	-12.1741
▁antlers	-12.1742
▁parish	-12.1742
▁mates	-12.1744
▁scooped	-12.1744
▁proves	-12.1745
seem	-12.1745
▁teased	-12.1746
▁punished	-12.1746
▁dam	-12.1747
case	-12.1749
▁psyche	-12.1752
▁jones	-12.1752
▁reeled	-12.1752
▁weathers	-12.1753
▁courses	-12.1753
▁hacked	-12.1753
▁spangled	-12.1753
▁outcast	-12.1754
▁pansies	-12.1754
▁baton	-12.1754
▁discovery	-12.1754
▁woof	-12.1755
▁deserved	-12.1755
▁rudely	-12.1756
.""	-12.1757
▁fester	-12.1757
▁costly	-12.1758
▁insisted	-12.1759
▁pancakes	-12.176
▁ascending	-12.1761
▁potter	-12.1762
▁wealthy	-12.1762
▁posed	-12.1763
city	-12.1764
▁demanded	-12.1765
▁heaved	-12.1765
▁flats	-12.1767
nen	-12.1768
▁assault	-12.1769
▁largest	-12.177
▁chattering	-12.177
▁vehicles	-12.177
▁poked	-12.177
▁thrilled	-12.1771
1.	-12.1771
▁darting	-12.1773
▁chores	-12.1774
need	-12.1775
▁delayed	-12.1778
▁shivered	-12.1779
▁gradual	-12.178
▁cradled	-12.178
▁switched	-12.1781
page	-12.1781
dr	-12.1782
▁mating	-12.1784
▁quicker	-12.1784
▁hauling	-12.1786
▁skyward	-12.1786
▁cheered	-12.1786
▁inspiration	-12.1787
▁zodiac	-12.1787
▁glamour	-12.1787
▁contrary	-12.1787
▁blinked	-12.1787
plus	-12.1788
▁splinters	-12.1789
hab	-12.1791
bearing	-12.1792
rent	-12.1792
▁grasped	-12.1793
▁glaciers	-12.1799
▁tyrants	-12.1806
▁slug	-12.1809
▁rend	-12.1809
▁postures	-12.181
drink	-12.1811
▁spurs	-12.1811
▁riders	-12.1812
▁cinders	-12.1814
▁hoo	-12.1817
▁yawns	-12.1817
▁knights	-12.1817
▁avoided	-12.1819
tying	-12.1819
mill	-12.1819
▁chooses	-12.1819
▁messengers	-12.1821
▁slowing	-12.1824
▁poplars	-12.1824
eus	-12.1825
▁195	-12.1827
▁chops	-12.1828
▁quicken	-12.1828
▁shifted	-12.183
▁definition	-12.1832
stage	-12.1832
▁muted	-12.1833
▁operation	-12.1834
makers	-12.1837
▁lobe	-12.1837
ces	-12.1837
fro	-12.1838
▁sled	-12.1839
▁beget	-12.1842
ges	-12.1844
▁bumper	-12.1848
▁rumors	-12.185
▁equals	-12.1851
▁youths	-12.1852
▁tropic	-12.1856
▁era	-12.1857
▁whirls	-12.1857
▁dated	-12.1859
▁flutes	-12.1865
ved	-12.1865
rew	-12.1867
▁cigars	-12.1868
▁aimless	-12.1869
mann	-12.1869
▁poses	-12.187
▁fathom	-12.1871
▁sy	-12.1872
▁flowery	-12.1877
▁mak	-12.1879
start	-12.1881
▁persimmon	-12.1883
▁sales	-12.1883
▁bottoms	-12.1885
▁confound	-12.1888
▁assert	-12.1891
▁striped	-12.1892
▁amen	-12.1893
thorny	-12.1894
▁freedoms	-12.19
▁assembly	-12.1902
▁terribly	-12.1902
▁baroque	-12.1902
▁plunging	-12.1902
▁nicht	-12.1902
▁forsythia	-12.1902
gloved	-12.1903
eh	-12.1904
▁audible	-12.1905
▁colonial	-12.1906
▁battery	-12.191
▁collects	-12.1912
▁drunks	-12.1913
▁sucker	-12.1915
og	-12.1916
▁chants	-12.1917
▁displays	-12.1919
▁fund	-12.1921
▁toothless	-12.1923
▁kitchens	-12.1924
▁alight	-12.1924
▁piers	-12.1925
▁arrested	-12.1928
▁bal	-12.1932
▁poorly	-12.1935
▁wares	-12.1937
rink	-12.1939
▁incision	-12.1939
▁thundering	-12.1941
▁springing	-12.1941
▁dotted	-12.1942
▁collars	-12.1944
govern	-12.1946
▁pays	-12.1946
▁denial	-12.1946
▁efforts	-12.1951
▁coffins	-12.1952
▁sob	-12.1957
▁flecked	-12.196
▁flings	-12.1962
▁umbrellas	-12.1967
▁orion	-12.1968
▁cheers	-12.1975
▁mash	-12.1977
▁flutters	-12.1985
▁cent	-12.1988
ini	-12.1989
▁abstraction	-12.199
rid	-12.1997
▁rely	-12.2001
▁everybodys	-12.2002
▁crap	-12.2005
list	-12.2005
▁shred	-12.2008
▁sooth	-12.2009
▁wary	-12.2012
▁versions	-12.2012
tte	-12.2012
;"	-12.2013
▁pops	-12.2013
▁labored	-12.2017
▁wrestling	-12.2021
▁myths	-12.2021
▁begs	-12.2022
▁exhale	-12.2023
▁graph	-12.2023
▁photographer	-12.2025
▁mangled	-12.2027
▁seine	-12.2028
▁hump	-12.2039
▁drones	-12.2041
eddy	-12.2042
▁noah	-12.2043
▁jay	-12.2046
▁meetings	-12.2046
▁kingdoms	-12.205
▁passages	-12.205
▁worthless	-12.2055
▁lifeless	-12.2057
▁widening	-12.2058
plated	-12.2059
rude	-12.2061
train	-12.2065
▁steve	-12.2071
ching	-12.2072
▁insert	-12.2074
▁24	-12.2078
▁exiled	-12.2079
▁survives	-12.208
▁flex	-12.208
▁cuffs	-12.2081
ability	-12.2082
log	-12.2092
...”	-12.2093
git	-12.2093
wake	-12.2097
▁tru	-12.2099
▁toils	-12.21
▁radi	-12.2104
▁succeed	-12.2108
▁conversations	-12.2109
45	-12.211
decked	-12.2111
▁brighten	-12.2112
▁treads	-12.2113
powered	-12.2122
▁inspect	-12.2127
▁digs	-12.2136
pick	-12.2137
▁appointed	-12.2148
nate	-12.215
▁crazed	-12.2152
striped	-12.2153
▁dope	-12.2155
stal	-12.2155
▁labors	-12.217
heres	-12.217
▁persist	-12.2171
taken	-12.2173
eur	-12.2174
yon	-12.2178
▁cartoon	-12.2185
▁define	-12.2186
matic	-12.2187
▁generals	-12.2187
▁reserve	-12.2191
▁juan	-12.2192
▁wired	-12.2201
faith	-12.2205
▁coward	-12.2205
▁rival	-12.2206
▁defy	-12.2206
▁swain	-12.2206
▁mixture	-12.2206
▁hemlock	-12.2206
▁slipper	-12.2208
▁chide	-12.2208
▁clime	-12.2208
▁pyre	-12.2209
▁alligator	-12.2209
▁sapphire	-12.2209
reach	-12.2209
▁hemisphere	-12.221
▁suburb	-12.221
▁network	-12.221
▁dinosaur	-12.221
▁filament	-12.2211
▁rhetoric	-12.2211
▁remnant	-12.2212
▁paradox	-12.2212
▁fingernail	-12.2212
▁pupil	-12.2212
▁ironic	-12.2215
▁prowl	-12.2216
▁musing	-12.2217
▁pathway	-12.2217
▁lever	-12.2218
▁crackle	-12.2218
▁billow	-12.2218
key	-12.2219
▁brew	-12.2219
▁woodland	-12.2222
▁ruler	-12.2225
▁musician	-12.2225
▁ix	-12.2226
▁creed	-12.2226
been	-12.2229
▁wart	-12.223
▁cork	-12.2232
▁cleanse	-12.2235
nada	-12.2237
▁crouch	-12.2237
bol	-12.2238
▁classical	-12.224
wrapped	-12.2241
fitting	-12.2241
▁sneer	-12.2241
▁swifts	-12.2243
silence	-12.2246
twenty	-12.2248
wearing	-12.2248
▁peg	-12.225
sac	-12.2254
▁mu	-12.2254
aid	-12.2256
▁zu	-12.2258
▁croak	-12.2259
▁inhale	-12.2261
▁illuminate	-12.2262
▁huddle	-12.2262
▁incline	-12.2262
3.	-12.2264
gate	-12.2266
craft	-12.2268
▁21	-12.227
▁oblique	-12.227
▁therapist	-12.2271
▁reflex	-12.2274
▁mailbox	-12.2274
▁pivot	-12.2275
▁prior	-12.2276
▁flax	-12.2276
▁sandal	-12.2277
accompanied	-12.2277
▁activity	-12.2277
▁adequate	-12.2277
▁crucified	-12.2277
▁immune	-12.2277
▁jefferson	-12.2277
▁kansas	-12.2277
▁lawrence	-12.2277
▁medieval	-12.2277
▁opulent	-12.2277
▁rejoicing	-12.2277
▁reservation	-12.2277
▁vintage	-12.2277
▁abdomen	-12.2277
▁bourbon	-12.2277
▁capsule	-12.2277
▁khaki	-12.2277
▁luggage	-12.2277
▁senior	-12.2277
▁perimeter	-12.2277
▁vampire	-12.2277
▁altitude	-12.2277
▁havoc	-12.2277
▁teresa	-12.2277
▁inscription	-12.2277
▁shaggy	-12.2277
▁dross	-12.2277
▁remedy	-12.2277
▁supermarket	-12.2277
▁campaign	-12.2277
▁insistence	-12.2278
▁wavy	-12.2278
▁fantasies	-12.2278
probable	-12.2278
▁importance	-12.2278
▁wheelchair	-12.2278
▁dragonfly	-12.2278
▁sheaves	-12.2278
▁nancy	-12.2278
▁boulevard	-12.2278
▁incandescent	-12.2278
▁cozy	-12.2278
▁drumming	-12.2278
▁fitful	-12.2278
▁archaic	-12.2278
▁insistent	-12.2278
▁hopped	-12.2278
pinning	-12.2278
▁droning	-12.2278
▁elementary	-12.2278
▁ermine	-12.2278
▁palette	-12.2279
▁planning	-12.2279
shut	-12.2279
▁memorized	-12.2279
▁linden	-12.2279
▁scribbled	-12.2279
▁revision	-12.228
▁theories	-12.228
sharp	-12.228
▁palate	-12.228
▁blackberries	-12.2281
▁ellen	-12.2281
▁pussy	-12.2281
▁aroused	-12.2281
▁daunt	-12.2282
▁shipped	-12.2282
▁honed	-12.2282
▁nineteenth	-12.2283
▁package	-12.2283
▁gene	-12.2284
▁woolen	-12.2284
▁runaway	-12.2284
▁corset	-12.2285
▁posing	-12.2285
▁scientists	-12.2285
▁wince	-12.2286
▁reborn	-12.2287
▁stein	-12.2287
▁horseback	-12.2287
▁jove	-12.2287
chamber	-12.2287
wort	-12.2287
▁carcasses	-12.2287
▁korean	-12.2288
▁hurtling	-12.2288
▁pathos	-12.2289
▁seething	-12.2289
none	-12.229
▁established	-12.2291
▁crashes	-12.2291
▁crossroads	-12.2291
▁shorn	-12.2291
hidden	-12.2291
trying	-12.2293
▁barred	-12.2293
▁punk	-12.2293
▁lint	-12.2295
▁amused	-12.2295
remembered	-12.2296
▁blackening	-12.2296
▁firewood	-12.2296
▁sharpened	-12.2297
▁noiseless	-12.2297
▁deceived	-12.2298
▁waver	-12.2298
▁medals	-12.2298
▁deemed	-12.2298
▁turnip	-12.2299
fool	-12.2301
▁gnats	-12.2302
▁sneakers	-12.2303
▁directed	-12.2305
▁vin	-12.2306
seen	-12.2308
▁marches	-12.2309
▁tallest	-12.2309
▁staked	-12.231
▁leaked	-12.231
▁loosening	-12.2311
▁freezer	-12.2311
▁chili	-12.2313
▁offended	-12.2313
ju	-12.2313
▁fingerprints	-12.2313
▁min	-12.2315
▁clustered	-12.2315
▁eyeballs	-12.2317
▁hinds	-12.2318
▁fruitless	-12.2322
▁performed	-12.2322
▁dumped	-12.2323
▁gardener	-12.2324
suited	-12.2324
▁soothed	-12.2325
▁outlast	-12.2326
▁pursued	-12.2328
▁tri	-12.2328
▁spiraling	-12.2332
▁magnets	-12.2334
▁smother	-12.2335
▁pent	-12.2336
▁vineyards	-12.2336
▁clumps	-12.2336
▁initials	-12.2336
american	-12.2337
▁tended	-12.2338
▁goodnight	-12.2339
▁flopp	-12.2339
▁shear	-12.2341
▁haunting	-12.2343
▁mermaids	-12.2344
▁swarming	-12.2345
pm	-12.2345
▁fend	-12.2345
▁radios	-12.2346
▁baptism	-12.2346
▁cellophane	-12.2346
▁galaxies	-12.2346
▁eucalyptus	-12.2346
▁scored	-12.2347
hin	-12.2347
▁navigate	-12.2348
march	-12.2348
▁glittered	-12.235
▁wheeze	-12.235
▁ski	-12.235
▁prays	-12.2351
▁puppets	-12.2352
▁richer	-12.2352
▁mallet	-12.2352
▁hissed	-12.2353
▁enfold	-12.2353
went	-12.2353
▁stifl	-12.2355
▁manna	-12.2356
lark	-12.2357
▁strangest	-12.2358
2.	-12.2359
▁confessed	-12.2362
▁shoal	-12.2365
▁grasping	-12.2365
▁expressed	-12.2366
▁bugle	-12.2366
▁(1	-12.2367
fact	-12.2371
▁commanded	-12.2371
▁hammering	-12.2372
▁wisely	-12.2373
▁silenced	-12.2373
▁denies	-12.2376
cup	-12.2378
▁beaming	-12.2379
▁marie	-12.238
▁dandelions	-12.2382
▁aglow	-12.2383
meaning	-12.2384
originally	-12.2384
▁deft	-12.2384
▁sharpen	-12.2386
▁sheltering	-12.2386
▁brambles	-12.2386
▁faithless	-12.2387
▁twined	-12.2387
▁ballad	-12.2388
▁pocked	-12.239
story	-12.2392
▁asp	-12.2393
▁billions	-12.2395
▁skunk	-12.2396
▁aboard	-12.2397
▁pleas	-12.2398
▁claps	-12.2398
▁vibration	-12.2399
▁torrent	-12.2399
▁coldness	-12.24
▁meaningful	-12.24
▁mermaid	-12.2401
▁mun	-12.2401
▁kites	-12.2402
▁reels	-12.2404
▁mer	-12.2405
ids	-12.2405
▁leaks	-12.2406
▁shortly	-12.241
▁pup	-12.2414
▁purely	-12.2414
▁app	-12.2415
▁ascends	-12.2417
▁stakes	-12.2423
▁holidays	-12.2424
▁shrieks	-12.2424
note	-12.2425
▁eyeless	-12.2425
▁docks	-12.2426
▁highland	-12.2428
▁lumps	-12.2429
▁dives	-12.2431
▁warble	-12.2432
▁jeweled	-12.2432
▁pods	-12.2433
▁ladle	-12.2441
hush	-12.2442
▁echoed	-12.2444
▁afresh	-12.2446
▁tangles	-12.2448
▁barked	-12.245
▁accents	-12.2452
▁considering	-12.2454
▁riots	-12.2455
▁divides	-12.2456
▁una	-12.2458
▁seamless	-12.2463
path	-12.2463
chie	-12.2463
▁unfolds	-12.2463
reading	-12.2464
oun	-12.2466
▁clowns	-12.2466
▁authors	-12.2467
▁regards	-12.2467
▁quivers	-12.2467
▁filigree	-12.2467
▁writhing	-12.2468
▁connecticut	-12.2468
▁contempt	-12.2468
▁ninth	-12.2469
▁acceptance	-12.2469
▁sperm	-12.2469
▁overtake	-12.247
▁threading	-12.247
▁expressions	-12.2471
▁grays	-12.2473
oak	-12.2475
▁phones	-12.2476
▁merge	-12.2477
▁choirs	-12.2482
▁billowing	-12.2488
▁exits	-12.2489
esteem	-12.2493
▁wage	-12.2494
▁cello	-12.2494
arc	-12.2497
▁emptying	-12.2497
cian	-12.2498
▁yawning	-12.2499
▁sills	-12.2505
mist	-12.2506
ung	-12.2507
bang	-12.2512
▁capes	-12.2513
▁bl	-12.2513
▁rowing	-12.2519
▁genesis	-12.2519
▁captains	-12.2521
▁cooks	-12.2521
▁thicken	-12.2522
rays	-12.2523
▁vales	-12.2526
▁tapes	-12.2529
▁behave	-12.2532
▁frontier	-12.2532
▁combs	-12.2533
▁witty	-12.254
▁warnings	-12.254
▁parcel	-12.2545
▁designs	-12.2548
▁sweats	-12.2553
▁avoiding	-12.2555
▁presented	-12.2556
▁arguments	-12.2559
▁describes	-12.256
tiled	-12.2562
▁comparison	-12.2562
▁fused	-12.2563
▁whar	-12.2568
▁eli	-12.2569
aire	-12.257
42	-12.257
▁questioning	-12.258
▁stinks	-12.2583
gods	-12.2584
▁metals	-12.2585
▁sprint	-12.2588
▁examine	-12.2592
type	-12.2592
lugging	-12.2594
▁kashmir	-12.2595
▁flux	-12.2595
▁bonnet	-12.2596
▁tasks	-12.2598
▁idly	-12.26
ridge	-12.26
▁29	-12.2602
▁entangled	-12.2609
▁develop	-12.261
▁delusion	-12.2612
▁controls	-12.2615
▁marr	-12.2615
▁au	-12.2619
pray	-12.2626
marked	-12.2628
▁whit	-12.263
▁fashions	-12.2634
▁flaps	-12.2634
▁backed	-12.2639
▁ole	-12.2643
▁options	-12.2643
▁films	-12.2644
▁merchants	-12.2659
bling	-12.267
▁committed	-12.2673
link	-12.2678
▁cam	-12.2679
▁expos	-12.2683
▁chap	-12.2685
card	-12.2688
▁lug	-12.2692
▁wip	-12.2695
▁crunch	-12.2698
▁ravines	-12.2698
closed	-12.2703
▁tit	-12.2714
ening	-12.2715
▁instruct	-12.2716
▁menu	-12.2723
▁patients	-12.2726
▁shutter	-12.2726
smile	-12.2732
▁tw	-12.2738
died	-12.2739
▁parable	-12.2741
fresh	-12.2742
▁equi	-12.2749
ates	-12.2751
▁vol	-12.2752
▁tempered	-12.2754
▁reckon	-12.2757
raz	-12.2759
▁isles	-12.2762
xi	-12.2764
▁blunder	-12.2765
▁mechanic	-12.2766
▁taint	-12.2768
bury	-12.2772
gas	-12.2779
▁dwarf	-12.278
▁recede	-12.2782
▁hanger	-12.2782
▁wrinkle	-12.2785
gainst	-12.2788
▁sham	-12.2791
▁council	-12.2794
▁oppression	-12.2795
▁cocoon	-12.2796
cull	-12.2796
▁cadence	-12.2796
▁obsession	-12.2797
▁essay	-12.2797
▁caravan	-12.2798
▁warehouse	-12.2798
▁chandelier	-12.2798
▁document	-12.2798
▁strait	-12.2798
▁kidney	-12.2798
▁grandpa	-12.2799
▁traitor	-12.2799
▁hamlet	-12.2799
▁souvenir	-12.2799
▁merchant	-12.2799
▁neighbour	-12.28
awa	-12.2801
▁fingertip	-12.2802
▁domain	-12.2802
▁barge	-12.2802
▁pant	-12.2803
▁spire	-12.2804
▁dialect	-12.2807
▁straps	-12.2808
▁tab	-12.281
▁pew	-12.281
▁edward	-12.2811
▁silvered	-12.2811
dimmed	-12.2813
toiling	-12.2814
aria	-12.2815
▁brag	-12.2817
▁hopping	-12.2817
aba	-12.282
▁artless	-12.282
▁marys	-12.2822
▁nimb	-12.283
▁regal	-12.2831
▁snuff	-12.2834
find	-12.284
▁roller	-12.2842
sex	-12.2845
▁knead	-12.2845
▁whirr	-12.2846
▁unending	-12.2847
▁volunteer	-12.2847
▁fatten	-12.2848
▁yelp	-12.2848
▁presume	-12.2849
▁communicate	-12.2849
break	-12.2849
▁subdue	-12.285
naked	-12.2851
▁diffuse	-12.2851
▁whan	-12.2855
▁merciful	-12.2858
▁fuzz	-12.2859
draw	-12.286
▁surprising	-12.2861
tailed	-12.2862
▁reconcile	-12.2862
▁luna	-12.2863
▁objective	-12.2863
▁tornado	-12.2863
▁philip	-12.2864
▁disagree	-12.2864
▁shrunk	-12.2865
▁enigma	-12.2865
faggot	-12.2866
▁ambitious	-12.2866
▁baptist	-12.2866
▁brazil	-12.2866
▁calamity	-12.2866
▁celebrating	-12.2866
▁ceramic	-12.2866
▁futile	-12.2866
▁giraffe	-12.2866
▁hammock	-12.2866
▁harbour	-12.2866
▁independent	-12.2866
▁kerosene	-12.2866
▁octopus	-12.2866
▁oklahoma	-12.2866
▁phoenix	-12.2866
▁phonograph	-12.2866
▁secrecy	-12.2866
▁semblance	-12.2866
▁shrimp	-12.2866
▁solstice	-12.2866
▁spectrum	-12.2866
▁submission	-12.2866
▁turmoil	-12.2866
▁citrus	-12.2866
▁guinea	-12.2866
▁hickory	-12.2866
▁michigan	-12.2866
▁nylon	-12.2866
▁slogan	-12.2866
▁ominous	-12.2866
▁raving	-12.2866
▁ineffable	-12.2866
▁undying	-12.2866
▁pendant	-12.2866
▁external	-12.2866
▁rills	-12.2866
▁sterile	-12.2866
▁ethereal	-12.2866
▁jukebox	-12.2866
▁motley	-12.2866
▁riven	-12.2866
▁crisis	-12.2866
▁tapestry	-12.2866
▁eloquent	-12.2866
▁thames	-12.2866
▁saunter	-12.2866
untimely	-12.2866
▁paltry	-12.2866
▁awry	-12.2866
▁easing	-12.2866
▁heaviness	-12.2866
▁chevy	-12.2866
▁mischief	-12.2866
▁nobly	-12.2866
▁traverse	-12.2866
▁babbling	-12.2866
▁describing	-12.2866
▁pewter	-12.2866
▁scarecrow	-12.2866
▁rumpled	-12.2866
▁hazy	-12.2866
▁gaily	-12.2866
▁delicacy	-12.2866
▁vocabulary	-12.2866
▁unfathomable	-12.2866
▁rosemary	-12.2866
▁trolley	-12.2866
▁pathetic	-12.2866
▁fanned	-12.2867
▁mauve	-12.2867
▁persian	-12.2867
▁1959	-12.2867
ene	-12.2867
▁apricot	-12.2867
sm	-12.2867
▁production	-12.2867
▁zipper	-12.2867
▁unholy	-12.2867
▁keyboard	-12.2867
▁unforgiving	-12.2867
▁spilt	-12.2867
▁foggy	-12.2868
▁copies	-12.2868
▁pursuing	-12.2868
▁fellowship	-12.2868
▁tumor	-12.2868
▁exhibition	-12.2868
▁retirement	-12.2868
▁knitting	-12.2868
ribbed	-12.2868
▁shaping	-12.2869
▁potent	-12.2869
▁madden	-12.2869
▁opposing	-12.2869
▁commitment	-12.287
▁descendants	-12.287
▁uh	-12.287
▁imprisoned	-12.287
▁poisonous	-12.287
▁acquire	-12.287
▁incessant	-12.287
▁undertow	-12.2871
▁accordion	-12.2871
▁antennae	-12.2871
▁removing	-12.2871
▁unwritten	-12.2872
▁thinner	-12.2872
▁masked	-12.2872
▁thinning	-12.2872
▁villagers	-12.2872
▁immigrant	-12.2872
sworn	-12.2873
▁stunted	-12.2873
▁thoroughly	-12.2873
▁shoreline	-12.2873
▁untied	-12.2875
▁recollection	-12.2876
▁footage	-12.2876
▁negroes	-12.2877
▁determine	-12.2878
▁frightening	-12.2878
▁depot	-12.2878
▁swaddled	-12.2879
▁sprawling	-12.2879
▁accomplished	-12.288
▁hardwood	-12.2881
▁email	-12.2881
▁haircut	-12.2881
▁perpetually	-12.2881
▁confined	-12.2883
▁repeatedly	-12.2884
▁strangled	-12.2885
▁loins	-12.2885
▁forgave	-12.2885
▁whirring	-12.2885
▁dismantle	-12.2886
▁twang	-12.2888
▁flailing	-12.2889
▁bask	-12.2889
blossom	-12.2889
▁infancy	-12.2889
▁upstream	-12.289
▁tur	-12.2891
lac	-12.2891
.”“	-12.2891
▁gentleness	-12.2891
▁fundamental	-12.2892
▁buckled	-12.2892
▁shuffled	-12.2892
▁gushing	-12.2893
sad	-12.2894
bellie	-12.2895
▁fairies	-12.2896
▁withdrawing	-12.2896
bc	-12.2897
▁tempted	-12.2897
murky	-12.2898
▁altered	-12.2899
▁incomplete	-12.2899
▁frosts	-12.2899
▁decipher	-12.2899
balls	-12.2899
▁loth	-12.2901
▁grimy	-12.2902
▁scorpion	-12.2903
digested	-12.2903
▁buzzards	-12.2904
▁roasted	-12.2904
▁whirled	-12.2905
▁fluted	-12.2905
▁thumping	-12.2906
▁sergeant	-12.2906
▁groaned	-12.2907
▁boldly	-12.2907
▁icicles	-12.2907
▁poker	-12.2907
▁acorn	-12.2907
hhh	-12.2908
▁internal	-12.2908
▁strongest	-12.2909
▁ferri	-12.2909
▁mocks	-12.291
▁banged	-12.2911
▁loon	-12.2911
▁earrings	-12.2913
▁breeding	-12.2914
▁advanced	-12.2915
▁patrons	-12.2916
▁tablets	-12.2917
▁miners	-12.2917
▁celebrated	-12.2918
▁commas	-12.292
▁physics	-12.2921
▁portals	-12.2921
▁creamy	-12.2921
▁wreathed	-12.2923
▁chunks	-12.2924
books	-12.2924
▁lovingly	-12.2926
▁dan	-12.2926
▁kindled	-12.2926
▁kine	-12.2927
drenched	-12.2928
▁ageless	-12.2928
▁insults	-12.2928
▁runway	-12.2929
▁punched	-12.293
▁seeping	-12.2932
▁intervals	-12.2932
▁souvenirs	-12.2932
▁pews	-12.2932
▁resisting	-12.2933
▁cushions	-12.2933
breed	-12.2934
▁focused	-12.2935
▁continents	-12.2936
▁seaward	-12.2938
▁heroine	-12.2939
▁twentieth	-12.2939
▁abundant	-12.2939
▁impatience	-12.2939
▁advantage	-12.2939
▁apprentice	-12.2939
stem	-12.2939
▁intensity	-12.294
▁hereafter	-12.294
▁nicely	-12.294
▁wages	-12.2941
▁perennial	-12.2942
dar	-12.2942
▁gills	-12.2943
▁forbid	-12.2945
▁compress	-12.2945
▁roughly	-12.2945
imagine	-12.2946
▁agents	-12.2946
▁professional	-12.2948
behold	-12.295
itch	-12.295
▁ruled	-12.2951
▁sculptures	-12.2953
▁connections	-12.2953
meanwhile	-12.2955
christ	-12.2956
chorus	-12.2956
▁seeps	-12.2956
yesterday	-12.2957
fruit	-12.2957
join	-12.2957
livd	-12.2958
▁moaned	-12.296
speed	-12.296
▁landlords	-12.2961
▁spectacles	-12.2961
▁glut	-12.2961
▁peasants	-12.2961
▁flits	-12.2961
▁watered	-12.2961
country	-12.2963
anything	-12.2963
▁brakes	-12.2965
▁saves	-12.2967
everywhere	-12.2967
▁photographed	-12.2968
▁vigilant	-12.297
▁smoothly	-12.2972
itself	-12.2972
breaking	-12.2972
safe	-12.2972
▁flaws	-12.2973
ddled	-12.2973
baby	-12.2974
▁hadst	-12.2976
▁tricked	-12.2976
▁barbarians	-12.2982
▁relations	-12.2985
▁shameless	-12.2987
▁fender	-12.2989
▁ope	-12.2992
▁clots	-12.2992
▁homely	-12.2994
name	-12.2994
▁trailed	-12.2994
▁bombing	-12.2995
▁ornaments	-12.2997
▁scornful	-12.2997
pointed	-12.2997
▁beaver	-12.2997
▁sunflowers	-12.2998
watching	-12.2998
▁frigid	-12.2998
▁yankee	-12.2999
▁lowering	-12.3
▁bicycles	-12.3001
perfect	-12.3003
whom	-12.3004
▁cookie	-12.3004
▁withdrawn	-12.3006
▁rusting	-12.3009
forgive	-12.301
.4	-12.3012
▁worrying	-12.3013
▁stanzas	-12.3013
▁roped	-12.3013
▁figs	-12.3014
▁spelling	-12.3018
cracked	-12.3018
crowned	-12.3019
▁tatters	-12.3019
▁thoughtless	-12.302
▁strengthen	-12.3022
▁shudders	-12.3022
▁musty	-12.3026
▁fart	-12.3028
▁claiming	-12.3029
200	-12.3032
▁hints	-12.3034
▁welcomed	-12.3035
▁finely	-12.3036
leen	-12.3037
moral	-12.3037
pine	-12.3039
▁magician	-12.3041
▁heavns	-12.3042
▁cushion	-12.3043
ala	-12.3043
▁manager	-12.3045
shoot	-12.3048
▁teams	-12.3048
ttle	-12.3059
thanks	-12.3061
▁sinful	-12.3064
tails	-12.3064
help	-12.3067
▁howled	-12.3067
▁threats	-12.3067
ute	-12.3067
▁defining	-12.3068
▁voluptuous	-12.3068
▁reverend	-12.3069
▁numerous	-12.3069
bless	-12.3069
▁hollowed	-12.307
▁ravenous	-12.307
▁christians	-12.3071
▁shin	-12.3071
ites	-12.3074
▁definitely	-12.3075
▁huts	-12.3075
▁gales	-12.3083
▁structures	-12.3083
chur	-12.3083
▁shrines	-12.3083
▁unread	-12.3086
lip	-12.3086
▁disperse	-12.3087
▁proclaim	-12.3094
bop	-12.3097
▁barb	-12.3099
▁beck	-12.3105
▁daytime	-12.3108
keeper	-12.3108
▁bundled	-12.3112
quit	-12.3115
▁murders	-12.3121
cial	-12.3124
▁indulge	-12.3126
done	-12.3131
yle	-12.3132
▁interval	-12.3134
pped	-12.3135
▁cradles	-12.3141
dora	-12.3144
petal	-12.3146
▁sores	-12.3147
▁germans	-12.3153
dong	-12.3155
▁blinks	-12.3155
han	-12.3158
▁formula	-12.3163
▁herb	-12.3163
kan	-12.3165
▁trusting	-12.3168
▁bluer	-12.3175
few	-12.3176
▁overlook	-12.3184
urs	-12.3184
veined	-12.3187
▁accidents	-12.319
rib	-12.3193
gain	-12.3198
▁freud	-12.3201
▁phase	-12.3202
▁jammed	-12.3206
dam	-12.3211
bor	-12.3214
▁helmets	-12.3216
▁independence	-12.3217
layer	-12.3229
▁baths	-12.323
▁pra	-12.3234
▁huh	-12.3241
▁bundles	-12.3248
▁hustle	-12.3251
▁douglas	-12.3267
▁horrors	-12.3281
▁evenly	-12.3283
▁bosoms	-12.3285
▁salted	-12.3288
▁domes	-12.3292
▁detect	-12.3299
▁muscled	-12.3306
temp	-12.3308
▁panel	-12.3308
▁winks	-12.3311
fy	-12.3312
▁gen	-12.3313
wit	-12.3323
30	-12.3334
▁adds	-12.3334
▁assurance	-12.3338
▁stripping	-12.334
▁methinks	-12.3341
▁yeats	-12.3342
▁forked	-12.3345
shire	-12.3345
▁lapse	-12.3354
▁bla	-12.3354
▁trill	-12.3356
woo	-12.3358
▁lye	-12.3365
▁blacker	-12.337
▁speeds	-12.3371
▁clad	-12.3373
▁fie	-12.3373
▁wronged	-12.3376
tongued	-12.338
▁spokes	-12.3389
▁themes	-12.3391
▁anon	-12.3396
▁strew	-12.3398
▁demonstrate	-12.3399
▁politic	-12.3401
ache	-12.3402
ome	-12.3402
rust	-12.3404
▁resume	-12.3405
▁insult	-12.3406
argues	-12.3408
▁quote	-12.3409
bl	-12.3409
▁searches	-12.341
sides	-12.3412
lean	-12.3414
▁assassin	-12.3414
▁fizz	-12.3415
▁weld	-12.3416
▁willie	-12.3419
▁smirk	-12.3419
▁conference	-12.342
▁congeal	-12.342
falls	-12.342
▁fidget	-12.3421
▁dispute	-12.3421
▁petition	-12.3422
▁bayonet	-12.3423
▁proverb	-12.3423
▁benefit	-12.3424
▁predator	-12.3424
▁skyscraper	-12.3424
▁gunshot	-12.3424
▁seagull	-12.3424
▁clump	-12.3424
▁eggshell	-12.3424
▁initial	-12.3425
▁vineyard	-12.3425
▁napkin	-12.3425
▁plumb	-12.3426
▁province	-12.3427
▁saucer	-12.3429
▁surgeon	-12.3431
ones	-12.3435
▁weaver	-12.3436
▁relent	-12.3442
▁clamp	-12.3445
tall	-12.3447
ready	-12.345
▁diner	-12.3452
▁pastel	-12.3452
▁diminish	-12.3454
▁belov	-12.3454
▁dune	-12.3455
▁evergreen	-12.3457
▁purr	-12.346
▁loot	-12.3466
▁hoar	-12.3467
▁stages	-12.347
▁suspend	-12.3472
▁renown	-12.3472
▁scorch	-12.3473
loves	-12.3473
▁pouch	-12.3474
▁lear	-12.3474
▁desir	-12.3474
▁approve	-12.3475
▁35	-12.3477
lub	-12.3479
▁rupture	-12.3482
▁extravagant	-12.3483
▁nova	-12.3484
▁accuse	-12.3486
▁isolate	-12.3486
▁cascad	-12.3487
▁amnesia	-12.3488
▁flan	-12.3488
bodied	-12.3489
▁meager	-12.3489
▁villain	-12.349
▁vigor	-12.349
▁habitat	-12.349
▁hieroglyph	-12.3491
▁alcove	-12.3491
▁anatomy	-12.3491
▁aperture	-12.3491
▁aquarium	-12.3491
▁ascension	-12.3491
▁cavalry	-12.3491
▁distraught	-12.3491
▁embryo	-12.3491
▁grumble	-12.3491
▁innumerable	-12.3491
▁jolly	-12.3491
▁juicy	-12.3491
▁kangaroo	-12.3491
▁mackerel	-12.3491
▁mahogany	-12.3491
▁minnesota	-12.3491
▁obsessed	-12.3491
▁renaissance	-12.3491
▁sanctuary	-12.3491
▁saxophone	-12.3491
▁shabby	-12.3491
▁spectator	-12.3491
▁spittle	-12.3491
▁staunch	-12.3491
▁tendency	-12.3491
▁wobbly	-12.3491
▁yiddish	-12.3491
▁albino	-12.3491
▁calcium	-12.3491
▁contemplation	-12.3491
▁diadem	-12.3491
▁giggling	-12.3491
▁irregular	-12.3491
▁lottery	-12.3491
▁pitiless	-12.3491
▁unruly	-12.3491
▁humbly	-12.3491
▁phosphorescent	-12.3491
▁reindeer	-12.3491
▁spouse	-12.3491
▁merciless	-12.3491
▁zinc	-12.3491
▁acrid	-12.3491
▁lethal	-12.3491
▁lucifer	-12.3491
▁darwin	-12.3491
▁molasses	-12.3491
▁temporal	-12.3491
▁wardrobe	-12.3491
▁harmonious	-12.3491
▁orgasm	-12.3491
▁dirge	-12.3491
▁eldest	-12.3491
▁bartender	-12.3491
▁banjo	-12.3491
▁invincible	-12.3491
▁palpable	-12.3491
▁kenneth	-12.3491
▁clarinet	-12.3491
▁slats	-12.3491
▁vicious	-12.3491
▁myrrh	-12.3491
▁removal	-12.3491
▁patina	-12.3491
▁harmonies	-12.3491
▁immeasurable	-12.3491
▁threadbare	-12.3491
▁benediction	-12.3491
septic	-12.3491
▁honeycomb	-12.3491
▁outrageous	-12.3491
▁livid	-12.3491
▁clamour	-12.3491
▁vigorous	-12.3491
▁minnow	-12.3491
▁gritty	-12.3491
▁tripped	-12.3492
▁haply	-12.3492
▁rowboat	-12.3492
▁gripping	-12.3492
▁masterpiece	-12.3492
▁uncertainty	-12.3492
▁rican	-12.3492
▁untroubled	-12.3492
▁tyranny	-12.3492
▁panties	-12.3492
▁unafraid	-12.3492
▁duncan	-12.3492
▁trimmed	-12.3492
▁penance	-12.3493
▁danny	-12.3493
▁spies	-12.3493
▁election	-12.3493
▁noticing	-12.3493
▁serpentine	-12.3493
▁awning	-12.3493
▁react	-12.3493
▁cruising	-12.3493
▁tingling	-12.3493
▁barley	-12.3493
▁admitted	-12.3493
▁shelley	-12.3493
▁blurring	-12.3494
▁blurry	-12.3494
encrusted	-12.3494
▁flawless	-12.3494
▁thinned	-12.3495
▁engraved	-12.3496
▁rubies	-12.3496
▁inquire	-12.3496
▁railway	-12.3497
▁rhythmic	-12.3497
▁pallor	-12.3497
▁hatchet	-12.3498
▁noonday	-12.3498
▁criminal	-12.3498
▁piling	-12.3499
▁bravery	-12.3499
shima	-12.3499
▁imagery	-12.3499
▁pineapple	-12.35
▁wins	-12.35
▁vanquished	-12.35
▁blackberry	-12.35
▁spitting	-12.3501
▁accidentally	-12.3501
capped	-12.3501
▁hobo	-12.3502
▁wicker	-12.3503
▁bosses	-12.3503
▁corral	-12.3504
▁drest	-12.3504
▁grappl	-12.3504
▁beguiled	-12.3504
▁shriveled	-12.3505
▁yeast	-12.3505
▁ripeness	-12.3505
thresh	-12.3505
▁buttocks	-12.3506
▁hash	-12.3506
▁pronounce	-12.3507
▁flipped	-12.3507
▁northward	-12.3507
▁leaden	-12.3508
▁und	-12.3509
▁elemental	-12.3509
nip	-12.3509
▁reasonable	-12.3509
▁smothered	-12.351
▁sect	-12.351
▁heavnly	-12.351
spattered	-12.351
▁acquired	-12.351
▁lolling	-12.3511
▁cooing	-12.3511
▁tethered	-12.3513
▁caul	-12.3514
▁frill	-12.3514
lling	-12.3515
▁crackers	-12.3515
▁overturned	-12.3515
▁examined	-12.3515
▁undressing	-12.3516
▁lurking	-12.3516
▁wilder	-12.3516
▁homeward	-12.3516
▁pricked	-12.3517
▁drunkard	-12.3518
▁electronic	-12.3518
▁evade	-12.3518
▁slimy	-12.3519
▁conjured	-12.3519
▁blacktop	-12.3521
▁screwed	-12.3522
▁horseshoe	-12.3523
▁cleaner	-12.3523
tus	-12.3524
▁plantation	-12.3525
▁smudged	-12.3527
▁resembled	-12.3527
▁lacks	-12.3528
▁disgusted	-12.353
▁strolling	-12.3531
▁overalls	-12.3531
▁desks	-12.3533
▁soaking	-12.3534
▁stance	-12.3534
▁expanding	-12.3535
▁lapel	-12.3535
▁armpits	-12.3536
▁biscuits	-12.3536
knows	-12.3536
▁fondly	-12.3537
▁mil	-12.3538
errand	-12.3538
▁shyly	-12.3539
▁filmy	-12.3541
▁cornfields	-12.3542
▁retreating	-12.3543
▁bales	-12.3543
▁defeated	-12.3544
▁included	-12.3544
▁hai	-12.3545
▁dashing	-12.3545
▁abiding	-12.3545
▁li	-12.3546
▁maine	-12.3547
▁jut	-12.3548
▁slurp	-12.3548
▁fiercely	-12.3549
▁shingles	-12.3549
▁leafless	-12.355
▁recording	-12.3551
▁caressed	-12.3554
▁squawk	-12.3556
▁coughed	-12.3557
▁nae	-12.3557
▁prostrate	-12.3557
▁payment	-12.3559
▁continual	-12.3563
4)	-12.3563
▁aflame	-12.3564
ida	-12.3565
▁symphony	-12.3569
▁adjacent	-12.3569
▁skeletal	-12.3569
▁volcanic	-12.3569
▁admiration	-12.3569
▁feminine	-12.3569
▁plight	-12.3569
▁peacocks	-12.357
▁furs	-12.3575
▁pr	-12.3576
▁glimpsed	-12.3579
▁sinews	-12.3579
▁crushing	-12.3579
▁daggers	-12.3583
▁stooping	-12.3584
▁pap	-12.3585
buds	-12.3586
leek	-12.3587
ines	-12.3588
▁yellowed	-12.359
▁partners	-12.3593
▁badge	-12.3593
▁alder	-12.3594
▁hardest	-12.3595
▁tapers	-12.3598
▁tested	-12.36
▁monte	-12.3601
▁clips	-12.3603
▁stinging	-12.3603
▁enjoying	-12.3606
nourished	-12.3607
crow	-12.3608
▁sickly	-12.3609
▁sages	-12.3613
▁silhouettes	-12.3614
▁melons	-12.3614
▁twitter	-12.3614
▁peat	-12.3616
▁adults	-12.3618
picker	-12.362
▁hasty	-12.3622
▁doorbell	-12.3624
▁spades	-12.3627
▁staining	-12.3628
▁slower	-12.3631
▁ruts	-12.3631
▁notebooks	-12.3632
▁thickets	-12.3633
▁childless	-12.3635
▁creator	-12.3637
▁reduce	-12.3638
▁loll	-12.3644
▁bedtime	-12.3644
▁spices	-12.3645
▁tally	-12.3646
▁debate	-12.3648
▁laboring	-12.3649
▁summons	-12.3649
▁ranged	-12.3651
▁chilling	-12.3652
came	-12.3653
▁nymphs	-12.3653
▁thistles	-12.3653
starred	-12.3653
▁fooled	-12.3653
▁intend	-12.3657
▁slabs	-12.3657
kh	-12.3658
▁emotional	-12.3666
▁critics	-12.3669
▁falln	-12.3669
af	-12.367
▁origins	-12.3671
clock	-12.3672
ele	-12.3673
giving	-12.3673
▁disp	-12.3674
canned	-12.3675
dian	-12.3675
▁bangs	-12.3676
▁earl	-12.3677
▁grinds	-12.3678
▁journalist	-12.368
▁trays	-12.3681
▁sens	-12.3682
▁ledges	-12.3689
lover	-12.3692
▁cleanly	-12.3694
▁arid	-12.3695
gin	-12.3695
▁wheeled	-12.37
ides	-12.3701
▁dragons	-12.3702
armed	-12.3705
bitten	-12.3706
▁significance	-12.3707
▁parsley	-12.3707
▁halloween	-12.3707
▁devout	-12.3708
baked	-12.3708
friends	-12.3711
geof	-12.3711
▁yellowing	-12.3711
level	-12.3712
walled	-12.3712
ein	-12.3713
▁continuing	-12.3713
▁stumbles	-12.3714
▁comp	-12.3717
buzz	-12.3718
pad	-12.3718
november	-12.372
tale	-12.3721
modern	-12.3722
view	-12.3722
wolf	-12.3723
grandfather	-12.3724
lorn	-12.3725
▁sumac	-12.3726
forgotten	-12.3726
▁boils	-12.3727
▁diminishing	-12.3727
therefore	-12.3728
▁crouching	-12.373
▁wend	-12.3731
tight	-12.3736
empty	-12.3738
▁axes	-12.374
ford	-12.374
patch	-12.374
dressed	-12.3741
clothes	-12.3741
taught	-12.3742
instead	-12.3742
▁males	-12.3743
passing	-12.3743
▁nuzzle	-12.3746
worth	-12.3746
▁headless	-12.3747
▁hulls	-12.3748
▁swarms	-12.375
▁deals	-12.375
trust	-12.3751
somehow	-12.3754
quick	-12.3754
▁suffocat	-12.376
▁peters	-12.3765
▁sla	-12.3765
▁hoods	-12.3773
▁notions	-12.3775
tooth	-12.3776
▁pictured	-12.3778
▁antic	-12.3781
loving	-12.3781
▁moulder	-12.3782
stuck	-12.3782
[...]
